<pad>	0
<unk>	0
[CLS]	0
[SEP]	0
[MASK]	0
(	0
)	0
"	0
-	0
.	0
–	0
£	0
€	0
▁	-1.87306
,	-3.80384
의	-3.87474
을	-4.22738
를	-4.40673
는	-4.42152
년	-4.46361
에	-4.78435
월	-4.81272
은	-4.87112
일	-4.88297
가	-4.93508
이	-4.96961
:	-5.1848
에서	-5.34274
로	-5.46646
KST	-5.58804
과	-5.62213
이다	-5.63919
와	-5.67671
도	-5.70642
▁있다	-5.77725
으로	-5.79325
ᆫ	-5.82277
▁이	-5.94674
인	-5.95239
▁1	-5.95437
▁토론	-5.96462
▁수	-6.07618
고	-6.07629
▁그	-6.10647
▁2	-6.14431
▁사용자토론	-6.19462
한	-6.19463
▁3	-6.20256
나	-6.23703
▁제	-6.29877
다	-6.37253
하였다	-6.3737
▁4	-6.37937
수	-6.38859
'	-6.5053
▁있는	-6.53538
지	-6.55335
▁10	-6.61944
▁주세요	-6.64789
하고	-6.6536
▁5	-6.65392
했다	-6.66579
할	-6.7069
▁11	-6.70901
▁12	-6.72554
기	-6.7257
▁7	-6.73159
▁링크	-6.73902
▁편집	-6.74456
하는	-6.74481
▁6	-6.76407
▁8	-6.77381
화	-6.77869
서	-6.79077
▁더	-6.81078
▁문서	-6.82691
만	-6.8645
·	-6.87183
▁9	-6.87232
▁《	-6.87492
》	-6.88163
게	-6.88784
▁등	-6.88872
ᆯ	-6.91424
▁많은	-6.91615
하여	-6.93761
개의	-6.93907
대	-6.94161
1	-6.9584
자	-6.95979
시	-6.98424
2	-6.9844
되었다	-6.99658
▁다음	-6.998
▁'	-7.00451
해	-7.01544
▁다른	-7.02754
토	-7.03488
ᆻ습니다	-7.07642
▁중	-7.08062
▁대한	-7.13434
▁문제	-7.15187
된	-7.19656
목	-7.20395
▁감사합니다	-7.20908
▁정보	-7.21399
에게	-7.21536
▁및	-7.21598
▁같은	-7.21799
년에	-7.21946
▁2018	-7.22007
사	-7.2276
▁한	-7.23609
금	-7.23815
▁2015	-7.24032
▁때	-7.26877
주	-7.28232
▁이후	-7.28709
▁후	-7.30123
▁것에	-7.30459
▁변경	-7.30853
▁대한민국	-7.31079
▁안녕하세요	-7.31198
▁그는	-7.316
▁자주	-7.32221
▁한다	-7.33548
한다	-7.3432
사항	-7.34555
▁일본	-7.34925
3	-7.35608
▁봇	-7.37207
▁~	-7.38068
라	-7.38178
—	-7.38289
면	-7.39651
▁질문을	-7.39761
▁18	-7.39813
▁참조해	-7.41302
세요	-7.41558
▁두	-7.41617
▁15	-7.41917
▁묻는	-7.42218
▁관해서는	-7.42471
▁수정하는	-7.4256
▁편집자	-7.4267
s	-7.42797
개	-7.42887
차	-7.43525
▁또한	-7.43699
▁여러분	-7.43933
라고	-7.44099
어	-7.44156
/	-7.45504
성	-7.45698
라는	-7.45717
▁20	-7.45809
적인	-7.46752
▁찾아보	-7.46848
적	-7.47162
▁있거나	-7.47352
▁바ᄅ	-7.47584
▁검토해	-7.47633
▁때문에	-7.47717
▁질문이	-7.47948
▁수정했습니다	-7.48151
ᅡ신다면	-7.48167
▁적용해	-7.48416
▁무시하기	-7.4857
▁위해	-7.50088
▁16	-7.504
▁함께	-7.50688
?	-7.5088
명	-7.51473
이며	-7.53019
봇이	-7.53067
리	-7.5362
▁13	-7.54865
에는	-7.54868
▁14	-7.55086
제	-7.55203
▁그리고	-7.55489
에서는	-7.56417
5	-7.56483
▁17	-7.57229
▁것을	-7.5735
하게	-7.57553
▁2014	-7.57774
▁되었다	-7.57841
세	-7.57967
▁따라	-7.58019
▁22	-7.58738
4	-7.59427
호	-7.60868
▁2019	-7.61238
6	-7.61783
▁다시	-7.63486
조	-7.64128
ᅵ	-7.65054
▁가장	-7.66046
▁있으며	-7.66277
까지	-7.66915
▁현재	-7.67149
야	-7.67715
스	-7.68427
상	-7.69055
▁그러나	-7.7017
▁경우	-7.70434
▁formula	-7.706
▁있습니다	-7.70663
▁또는	-7.70786
▁것으로	-7.71047
부	-7.71388
하기	-7.71951
▁19	-7.72298
▁전	-7.73063
m	-7.73066
▁미국	-7.73225
▁것이	-7.73253
이나	-7.73736
들이	-7.74929
▁2016	-7.75295
▁모두	-7.75301
회	-7.75995
▁당시	-7.76284
▁21	-7.76698
하지	-7.7678
▁있었다	-7.77687
장	-7.77781
들은	-7.79866
되어	-7.80558
아	-7.8066
▁통해	-7.81278
▁역	-7.82202
▁2010	-7.83963
▁23	-7.8414
동	-7.84234
0	-7.84494
전	-7.85206
진	-7.85256
▁2012	-7.85857
원	-7.8599
▁의해	-7.86211
’	-7.86219
▁2013	-7.86307
된다	-7.87345
7	-7.87557
▁것은	-7.87828
▁된다	-7.88335
구	-7.88788
히	-7.88991
8	-7.89433
정	-7.89748
소	-7.89818
일에	-7.90066
▁‘	-7.9033
신	-7.90879
이라는	-7.91347
우	-7.91973
~	-7.92649
비	-7.93051
▁것이다	-7.93083
▁해당	-7.93453
하며	-7.93854
요	-7.94482
▁2017	-7.94688
>	-7.9483
▁2011	-7.94835
군	-7.95234
들을	-7.95777
오	-7.96283
▁다음과	-7.96585
▁2009	-7.96802
위	-7.97177
▁위키백과	-7.97193
미	-7.97293
▁첫	-7.97762
선	-7.97955
치	-7.97959
▁2008	-7.98301
여	-7.98897
현	-7.99676
하면서	-7.99786
▁큰	-7.99827
이라고	-8.00172
▁여러	-8.00279
▁모든	-8.00397
▁하지만	-8.00776
천	-8.00916
▁것	-8.01
▁대해	-8.01312
며	-8.01812
▁세계	-8.02059
노	-8.02109
▁해	-8.02604
형	-8.02606
9	-8.02874
▁30	-8.03408
km	-8.04385
식	-8.04613
산	-8.05834
보	-8.06988
니	-8.08456
이러한	-8.08713
였다	-8.08968
▁주	-8.09157
▁뒤	-8.09173
▁위한	-8.11251
▁일부	-8.11437
용	-8.11874
마	-8.12942
보다	-8.12948
번	-8.13419
▁하는	-8.13431
데	-8.13714
A	-8.14017
▁또	-8.14064
▁약	-8.14409
▁영화	-8.14482
부터	-8.14557
하였고	-8.14615
▁축구	-8.1503
▁한국	-8.15591
드	-8.15944
코	-8.16235
입니다	-8.16555
적으로	-8.16595
분	-8.16819
▁이상	-8.1719
당	-8.17866
▁중국	-8.18078
▁25	-8.18193
▁등의	-8.18877
▁삭제	-8.20305
이었다	-8.20524
들의	-8.21017
하	-8.21624
▁자신의	-8.2166
▁2020	-8.22126
계	-8.22322
유	-8.22693
!	-8.23098
경	-8.2336
트	-8.23688
년부터	-8.23699
되고	-8.23887
C	-8.24296
권	-8.24331
▁24	-8.24588
ᆻ다	-8.24639
문	-8.24914
했고	-8.24927
▁사용자	-8.26357
▁시	-8.26637
▁잘	-8.26746
타	-8.27213
중	-8.27486
들	-8.27712
▁등이	-8.2788
▁알	-8.29718
▁문서를	-8.2977
▁독일	-8.29903
파	-8.30138
무	-8.30305
n	-8.30725
▁같다	-8.30814
▁26	-8.30943
▁했다	-8.31513
▁28	-8.32081
년에는	-8.32792
즈	-8.33435
▁안	-8.33464
▁데	-8.33836
안	-8.33861
▁2007	-8.34123
▁아니라	-8.34651
재	-8.34663
되는	-8.35188
▁동안	-8.35235
▁프랑스	-8.36362
▁27	-8.36428
▁계속	-8.3656
에도	-8.36995
▁같이	-8.37495
▁〈	-8.37787
관	-8.37979
▁<	-8.38338
▁차단	-8.38397
연	-8.38676
해서	-8.38887
로서	-8.38919
카	-8.38988
▁구	-8.39225
▁오	-8.3967
바	-8.39885
공	-8.40106
▁있고	-8.40158
▁정	-8.40186
영	-8.40649
단	-8.40757
▁없는	-8.41319
〉	-8.41533
▁29	-8.41991
모	-8.4229
]	-8.42589
님	-8.42611
▁인구	-8.43218
▁위치한	-8.43242
▁이는	-8.43302
될	-8.43417
▁뜻	-8.43886
▁경기	-8.44
▁시즌	-8.44125
던	-8.44132
S	-8.44505
했던	-8.44513
▁총	-8.44553
”	-8.44575
강	-8.44883
년까지	-8.44948
▁전쟁	-8.45235
국	-8.45446
D	-8.45651
이자	-8.45662
포	-8.45731
법	-8.45959
▁특히	-8.46099
ᆺ	-8.46399
ᆷ	-8.46425
▁성	-8.47651
▁“	-8.4767
▁하나	-8.47957
▁역사	-8.48237
▁많이	-8.48273
세기	-8.48301
▁미국의	-8.48433
ᅴ	-8.48718
▁각	-8.48727
후	-8.48803
▁국가	-8.48827
▁새로운	-8.49104
▁2006	-8.49261
체	-8.49351
▁이를	-8.49371
▁비	-8.49749
로부터	-8.49861
민	-8.50102
합니다	-8.50508
석	-8.50889
▁매우	-8.51135
▁인해	-8.51198
▁않고	-8.51673
▁지역	-8.518
실	-8.5189
면서	-8.51986
했으며	-8.52092
▁정부	-8.52171
▁세	-8.52381
B	-8.52454
▁신	-8.52511
학	-8.52935
키	-8.5388
▁있어	-8.54207
▁즉	-8.54228
▁강	-8.54364
▁되어	-8.54651
이고	-8.54655
양	-8.5479
▁도시	-8.54878
▁볼	-8.55635
ᆼ	-8.56329
되었고	-8.56725
초	-8.57021
▁이에	-8.57042
▁내용을	-8.57308
▁주로	-8.57442
네	-8.57573
▁조선	-8.57698
ᆻ던	-8.5793
루	-8.58129
e	-8.58322
▁가지고	-8.58788
▁말	-8.5883
▁서울	-8.59446
해야	-8.59546
▁이전	-8.59707
▁리그	-8.60132
하였으며	-8.60202
승	-8.6035
르	-8.60578
▁관련	-8.60669
▁내	-8.60672
두	-8.60825
▁유	-8.61045
▁따라서	-8.61202
종	-8.61811
▁없다	-8.62321
티	-8.62705
류	-8.63073
역	-8.64829
▁바랍니다	-8.64832
그	-8.65042
▁받았다	-8.65286
▁할	-8.65576
교	-8.6559
▁않은	-8.6573
란	-8.65918
▁팀	-8.66061
▁31	-8.66079
▁번째	-8.66124
왕	-8.66264
ᆸ니다	-8.66676
▁않는	-8.6671
▁감독	-8.6673
▁사람	-8.6695
▁선수	-8.67118
거	-8.6714
▁배우	-8.67234
K	-8.67275
배	-8.67632
▁어떤	-8.68224
처럼	-8.68436
▁영국	-8.68543
등	-8.68681
내	-8.68703
레	-8.69273
명의	-8.69359
ᅦ	-8.7005
집	-8.70058
▁연구	-8.70203
G	-8.71243
▁있던	-8.7129
▁미	-8.7139
▁국제	-8.71767
▁아래	-8.71887
▁있는데	-8.7201
t	-8.7207
▁게임	-8.72101
T	-8.72106
되지	-8.72406
k	-8.7241
▁문서에	-8.72441
급	-8.72498
▁올림픽	-8.72661
▁아버지	-8.72685
년대	-8.73008
▁김	-8.73118
크	-8.73231
이라	-8.73528
ᆨ	-8.73649
프	-8.73908
하기도	-8.74061
▁수도	-8.74073
b	-8.74078
판	-8.74131
▁지금	-8.7419
ᅳᆯ	-8.74439
M	-8.74605
▁A	-8.74983
병	-8.74992
번째	-8.75517
▁않았다	-8.75562
방	-8.75596
창	-8.75648
▁아	-8.75662
▁결국	-8.75704
▁방송	-8.75762
▁the	-8.75941
▁먼저	-8.76087
ᆻ고	-8.76212
d	-8.76296
▁거의	-8.76553
▁시대	-8.76753
P	-8.76823
▁기여	-8.77077
▁처음	-8.77195
▁다양한	-8.77254
남	-8.77318
하면	-8.77443
▁이런	-8.77542
a	-8.77682
반	-8.77827
▁요청	-8.78014
하던	-8.78455
ᆫ다	-8.78567
▁러시아	-8.78679
량	-8.78722
▁위키백과에	-8.78837
▁결과	-8.78839
▁활동	-8.79133
디	-8.79181
▁이름을	-8.79338
청	-8.79443
▁주요	-8.79444
일부터	-8.79457
▁of	-8.79481
E	-8.79778
케	-8.79836
y	-8.79953
씨	-8.80038
▁우리	-8.80102
러	-8.80172
건	-8.80272
항	-8.81084
직	-8.81178
▁바	-8.813
▁2005	-8.81411
▁여자	-8.81427
월에	-8.81448
▁좋은	-8.81555
▁알려져	-8.81614
▁[	-8.81648
층	-8.8172
더	-8.81782
▁소	-8.81927
속	-8.8194
▁반	-8.81946
▁아닌	-8.82142
i	-8.82506
▁이탈리아	-8.82508
예	-8.82597
▁유럽	-8.82638
▁아들	-8.82774
▁제가	-8.8278
피	-8.82929
기도	-8.83331
▁높은	-8.83565
]]	-8.83685
ᅳᆫ	-8.8382
▁양	-8.84108
▁한편	-8.84113
g	-8.84153
▁사실	-8.84438
▁2004	-8.84674
▁음악	-8.85125
명이	-8.85349
▁기준	-8.85684
주의	-8.85863
으로서	-8.8594
▁될	-8.85985
▁무	-8.86032
봉	-8.86285
▁각각	-8.86323
터	-8.86478
거나	-8.86571
▁산	-8.86666
▁서로	-8.86766
10	-8.86966
점	-8.87163
▁관계	-8.87174
▁주장	-8.87323
▁드라마	-8.87649
▁전투	-8.87742
희	-8.87946
▁작품	-8.8798
▁본	-8.88163
▁왜	-8.88208
▁공격	-8.88245
▁따르면	-8.88311
▁장	-8.88537
근	-8.8897
L	-8.89025
▁전체	-8.89031
▁가운데	-8.8906
▁직접	-8.89068
▁대학	-8.89524
▁관한	-8.8964
▁출신	-8.89875
▁사건	-8.9033
▁번	-8.90549
▁몇	-8.90675
태	-8.90974
▁형태	-8.91147
▁역시	-8.91154
▁영향을	-8.91162
질	-8.91222
▁로마	-8.91248
▁선	-8.91255
▁정책	-8.91716
발	-8.91843
▁들어	-8.91861
▁중요한	-8.91879
▁불구하고	-8.92031
▁대회	-8.92139
초등학교	-8.92233
▁2000	-8.92446
▁말한다	-8.92563
▁내용은	-8.9327
으로부터	-8.93279
▁않는다	-8.93285
▁정도	-8.93456
▁대통령	-8.93582
▁K	-8.94151
운	-8.94185
백	-8.9426
▁독립	-8.9445
▁고려	-8.94461
광	-8.94578
▁보고	-8.9472
▁가지	-8.94778
위를	-8.954
에서도	-8.95941
▁사	-8.96046
▁기술	-8.96089
▁되는	-8.96743
▁있다고	-8.96816
▁자신이	-8.97264
순	-8.97293
▁크게	-8.97314
▁조	-8.97337
대로	-8.97437
▁새	-8.97843
되었으며	-8.97906
▁위	-8.97977
생	-8.98067
▁점이	-8.98128
철	-8.98199
▁자유	-8.98226
▁음반	-8.98264
▁대부분	-8.9827
▁원래	-8.98285
하자	-8.9856
p	-8.98627
▁후에	-8.98731
▁의미	-8.98931
였던	-8.99024
▁관리	-8.99048
▁경제	-8.99262
▁열린	-8.99466
▁전에	-8.99645
▁이미	-8.99699
▁받아	-8.99907
I	-9.00245
온	-9.00476
c	-9.00543
▁필요	-9.00613
ᆻ는데	-9.00657
물	-9.00677
▁혹은	-9.00678
=	-9.00684
증	-9.00707
▁B	-9.00958
▁사용	-9.00975
▁합니다	-9.01206
ᆻ으나	-9.01216
▁목록	-9.01349
▁기록	-9.01364
▁있어서	-9.01793
▁여성	-9.02055
▁작은	-9.02426
▁있을	-9.02627
지만	-9.02738
▁부분	-9.02839
암	-9.02859
▁프로	-9.03092
▁100	-9.03117
▁지방	-9.0331
ing	-9.03366
테	-9.03545
심	-9.03849
▁초	-9.04077
▁달리	-9.04406
▁남	-9.04515
R	-9.04579
김	-9.04797
들과	-9.04971
▁현	-9.05263
▁선거	-9.05343
▁데뷔	-9.05428
▁왕	-9.05709
감	-9.05881
▁원	-9.05907
▁사이에	-9.06161
▁간	-9.06229
▁된	-9.06607
▁그가	-9.06618
▁거쳐	-9.06682
▁만든	-9.06986
ᆻ지만	-9.07314
불	-9.07341
▁C	-9.07552
▁백과사전	-9.07828
일까지	-9.08068
▁FC	-9.08192
▁문화	-9.08199
브	-9.08238
ᆻ으며	-9.0825
했지만	-9.08253
▁내용	-9.08264
▁저	-9.08313
▁이어	-9.08422
주셔서	-9.08548
저	-9.08603
▁영어	-9.08835
N	-9.08843
▁인간	-9.09174
▁사회	-9.09263
▁동시에	-9.09519
음	-9.09526
▁마	-9.0957
▁바로	-9.09588
ᆸ	-9.09747
▁마지막	-9.0984
▁생활	-9.09917
츠	-9.10079
▁보통	-9.10082
▁분류	-9.10205
됐다	-9.10228
▁우	-9.11066
명을	-9.11131
▁M	-9.11167
▁글	-9.11172
▁그룹	-9.11275
▁프로그램	-9.11478
▁의한	-9.11781
▁궁금한	-9.11937
▁지원	-9.12
되면서	-9.12021
▁시작했다	-9.1203
▁의견을	-9.12083
준	-9.12088
12	-9.12227
▁됩니다	-9.12535
하였으나	-9.1257
▁가진	-9.12776
▁S	-9.12843
▁내용이	-9.12848
▁공식	-9.12957
▁모	-9.1304
▁없이	-9.13042
성을	-9.13252
cm	-9.13649
▁조직	-9.13667
▁2003	-9.13836
려	-9.1389
▁운동	-9.13955
▁사람이	-9.14129
h	-9.14234
▁특정	-9.14468
▁자기	-9.14513
▁경기도	-9.14552
▁경기에서	-9.14758
▁추가	-9.15002
▁존재	-9.15049
▁타	-9.15114
▁피	-9.15241
고등학교	-9.15266
▁군	-9.15548
각	-9.15673
▁날	-9.15674
족	-9.15736
▁역할을	-9.15944
임	-9.15973
▁상태	-9.15977
▁이야기	-9.16066
▁초기	-9.16073
▁이들	-9.16075
덕	-9.16267
▁하	-9.1648
▁최초의	-9.16588
18	-9.16675
리그	-9.16726
▁않아	-9.16852
이었던	-9.16861
▁단	-9.16864
복	-9.16899
▁2002	-9.16913
▁일반적으로	-9.16918
▁어떻게	-9.16958
▁철도	-9.17078
▁당	-9.17107
▁처음으로	-9.17209
▁문제가	-9.17413
▁위하여	-9.17571
▁활약	-9.17705
▁곳	-9.17798
」	-9.17892
행	-9.1816
▁운영	-9.18259
곡	-9.1826
박	-9.18266
o	-9.18327
▁표현	-9.18383
▁한국어	-9.18443
l	-9.18552
령	-9.18603
▁박	-9.18841
H	-9.18884
15	-9.19072
▁있지만	-9.19127
열	-9.19285
|	-9.19358
f	-9.19427
▁소속	-9.19559
▁시리즈	-9.19577
환	-9.19675
하는데	-9.19924
이란	-9.19955
F	-9.19956
도록	-9.19956
▁중심으로	-9.20013
▁부탁드립니다	-9.20156
▁것입니다	-9.20157
약	-9.20186
▁군사	-9.207
본	-9.20703
▁언어	-9.20751
▁계획	-9.20827
▁것도	-9.20959
▁방법	-9.2112
▁영화이다	-9.21209
W	-9.21308
▁시스템	-9.21337
▁현대	-9.21404
▁틀	-9.21486
▁제작	-9.21526
▁달	-9.21609
▁앨범	-9.21751
▁파일	-9.21992
▁승리	-9.22027
길	-9.2221
호로	-9.22327
송	-9.22339
▁대신	-9.22402
시간	-9.22508
투	-9.22717
▁대표	-9.22823
▁대전	-9.23145
▁개발	-9.23184
▁정치	-9.23391
al	-9.23585
하거나	-9.23845
大	-9.23867
▁최대	-9.23879
▁속하는	-9.24033
▁개인	-9.24115
▁삼	-9.24123
▁이것은	-9.24134
▁온	-9.2422
▁일반	-9.2423
▁만약	-9.24357
▁이동	-9.24408
▁인물	-9.24417
▁기준으로	-9.2445
▁이때	-9.24466
▁그리스	-9.24583
편	-9.24692
▁존	-9.24819
시켰다	-9.2521
金	-9.25289
er	-9.25291
kowiki	-9.25306
통	-9.25415
▁공	-9.25526
▁활동을	-9.25709
▁매	-9.25775
11	-9.25816
▁없습니다	-9.25828
▁네	-9.25849
업	-9.26151
▁신청	-9.26434
▁이렇게	-9.2658
▁2001	-9.266
▁기타	-9.26721
▁군대	-9.2675
랑	-9.26893
▁공개	-9.26913
▁진행	-9.26983
▁T	-9.26987
▁교육	-9.27106
▁교수	-9.27167
▁표기	-9.27239
▁있다면	-9.27239
▁공동	-9.27365
▁1990	-9.27398
▁생산	-9.27517
▁중앙	-9.2768
▁곧	-9.27717
▁기여해	-9.27737
매	-9.27753
v	-9.2785
베	-9.28157
▁50	-9.28167
▁발매	-9.28192
린	-9.28213
▁F	-9.28284
▁이용	-9.28407
▁최고	-9.2841
▁어머니	-9.28643
했으나	-9.28719
▁배	-9.28742
▁변화	-9.28852
▁난	-9.29138
x	-9.29157
▁외	-9.29205
▁받고	-9.29205
▁FIFA	-9.29247
품	-9.29289
O	-9.29291
▁길이	-9.29305
19	-9.29433
▁그녀	-9.29477
살	-9.29538
▁지구	-9.29589
버	-9.29656
▁저작권	-9.29722
▁섬	-9.29758
▁기록되어	-9.29771
▁어느	-9.29789
▁유지	-9.29845
▁파	-9.29896
▁그대로	-9.2995
▁행정	-9.29955
인데	-9.30118
커	-9.30144
중학교	-9.30236
ᆯ라	-9.30318
16	-9.30319
▁아직	-9.3037
▁우승	-9.30457
▁[[	-9.30557
▁증거	-9.30602
▁자료	-9.30674
▁재	-9.30826
▁제도	-9.30835
;	-9.30958
▁이유로	-9.30967
▁학교	-9.30991
마다	-9.31014
▁나라	-9.31102
r	-9.31262
▁대하여	-9.31389
▁스페인	-9.31449
▁사용하는	-9.31474
▁편집은	-9.31516
했는데	-9.31618
br	-9.31653
▁그림	-9.31667
억	-9.31668
ed	-9.31688
▁부	-9.31698
%	-9.31755
▁황제	-9.32169
▁불	-9.32184
▁육군	-9.32209
in	-9.32307
▁보	-9.32333
▁때문이다	-9.32514
기를	-9.3258
▁서비스	-9.32647
▁등에	-9.32742
▁고대	-9.32792
론	-9.32914
상을	-9.32915
▁결정	-9.32923
▁가수	-9.33
함으로써	-9.33057
함	-9.33126
세의	-9.33386
20	-9.33428
▁자신	-9.33528
▁인도	-9.33542
▁동	-9.33601
▁D	-9.33618
山	-9.33636
메	-9.33689
▁건설	-9.33823
호선	-9.33975
▁계약	-9.33982
▁이와	-9.34045
mm	-9.34316
▁시간	-9.34345
▁밴드	-9.34551
위키백과의	-9.34683
▁두고	-9.34714
이기도	-9.34824
▁시절	-9.34982
▁지정되었다	-9.35221
▁목적으로	-9.35302
경기	-9.35397
추	-9.35497
▁코	-9.35502
자는	-9.3553
▁더욱	-9.3556
▁보호	-9.35814
주시면	-9.35842
▁만들어	-9.35847
▁대학교	-9.35874
▁있었던	-9.35981
▁싱글	-9.35998
너	-9.36032
▁좀	-9.36145
▁포	-9.36217
▁공화국	-9.36288
▁IP	-9.36304
쿠	-9.36337
▁얼마	-9.36347
▁컴퓨터	-9.36393
▁기간	-9.36398
평	-9.36442
달	-9.36442
▁야구	-9.36566
The	-9.36595
▁리	-9.36895
▁교황	-9.37043
▁사람들	-9.37368
▁않습니다	-9.37391
설	-9.37546
▁받은	-9.37546
ᆯ리	-9.37574
李	-9.3768
Y	-9.37748
표	-9.3806
▁공간	-9.38151
▁겸	-9.3816
▁한번	-9.3818
▁백	-9.38365
▁훼손	-9.38476
자가	-9.3848
▁있도록	-9.38594
▁1997	-9.38652
▁전기	-9.3869
▁1999	-9.38925
▁1980	-9.38962
▁「	-9.38964
▁애니메이션	-9.39057
▁조사	-9.39058
▁노	-9.39181
난	-9.39204
▁줄	-9.39208
▁예를	-9.3934
▁회사	-9.39445
절	-9.39451
처	-9.39552
▁있기	-9.39625
든	-9.39759
하도록	-9.398
▁기원전	-9.3994
J	-9.40086
▁없었다	-9.40162
▁U	-9.40206
▁글을	-9.40527
▁승강장	-9.40531
▁클럽	-9.40604
충	-9.40715
▁이름은	-9.40889
▁I	-9.40933
탄	-9.40984
대학	-9.40988
▁종	-9.41068
슈	-9.4108
en	-9.41229
▁있게	-9.41533
▁걸쳐	-9.41544
력	-9.41598
▁1995	-9.41673
▁태어났다	-9.41693
w	-9.4177
▁베트남	-9.42117
▁이름	-9.42171
▁캐나다	-9.42284
규	-9.42435
▁처리	-9.42491
년간	-9.4263
▁지지	-9.42665
읍	-9.42731
▁최초로	-9.42776
▁사이	-9.42938
▁사진	-9.43011
▁발전	-9.43075
선의	-9.43186
▁J	-9.43212
V	-9.43326
z	-9.4356
▁등으로	-9.4373
▁과거	-9.43804
채	-9.43933
시켜	-9.43959
▁중심	-9.44014
▁1996	-9.44031
▁편집하시	-9.44038
▁번역	-9.44148
17	-9.4418
▁하계	-9.44241
▁선수이다	-9.44344
▁사상	-9.44411
하다	-9.44434
▁상태로	-9.44527
▁1998	-9.44553
▁왕국	-9.44787
▁대해서는	-9.44841
▁연방	-9.45026
▁건	-9.45063
▁남자	-9.45177
윤	-9.45179
▁예	-9.45186
▁이름으로	-9.45203
▁월드컵	-9.45232
▁그들	-9.45371
▁도움이	-9.45455
X	-9.45539
13	-9.46074
▁and	-9.4608
동음이의	-9.4611
▁되고	-9.46405
▁기독교	-9.4643
▁서울특별시	-9.46467
▁후보	-9.46468
▁단순	-9.46554
▁크기	-9.4657
▁포함한	-9.46652
별	-9.46735
▁있으니	-9.46755
▁성공	-9.46791
▁송	-9.46796
▁경	-9.46897
▁TV	-9.46907
▁규모	-9.46981
it	-9.47155
색	-9.47174
위에	-9.47235
▁그녀는	-9.47252
▁딸	-9.47333
영화	-9.47586
극	-9.47843
▁주의	-9.48052
▁노래	-9.48122
이지만	-9.48207
▁문서는	-9.48221
▁경우가	-9.48387
훈	-9.48398
▁완전히	-9.48453
▁이들은	-9.48512
▁진	-9.48513
&	-9.48579
▁참여	-9.48587
▁자연	-9.48637
▁잉글랜드	-9.48697
▁있음	-9.48948
었다	-9.49124
▁작업	-9.49159
▁계정	-9.49163
▁인터넷	-9.49278
는데	-9.49287
▁남부	-9.49473
▁보인다	-9.49484
<	-9.49537
▁때까지	-9.49606
홍	-9.49643
패	-9.49693
▁진출	-9.49769
대학교	-9.49772
▁허	-9.4986
or	-9.49903
술	-9.49946
개월	-9.49956
대부분의	-9.50077
있다	-9.50089
작	-9.50189
▁도쿄	-9.5024
▁그러한	-9.50479
빈	-9.50488
말	-9.50515
▁모습을	-9.50529
▁기사	-9.50553
▁평균	-9.50559
▁뒤에	-9.50589
지는	-9.50697
▁임	-9.50779
▁스스로	-9.50808
▁알려진	-9.50829
▁너무	-9.50858
on	-9.50902
애	-9.50984
▁같습니다	-9.51087
U	-9.5111
▁남아	-9.51115
▁황	-9.51284
손	-9.51388
인지	-9.51404
▁지역에	-9.51405
▁행위	-9.5146
▁반복	-9.51571
학교	-9.51597
▁있지	-9.51826
▁널리	-9.51842
▁밝혔다	-9.51846
▁건물	-9.51882
▁곡	-9.51907
▁시기	-9.51925
▁보면	-9.52372
▁상	-9.52613
▁정도로	-9.52745
▁함수	-9.52856
▁비판	-9.52979
▁소련	-9.52994
▁관련된	-9.53003
▁판매	-9.5318
락	-9.53245
▁아이	-9.53479
시에	-9.53518
▁확인	-9.53553
▁그런	-9.53577
us	-9.53627
▁것이라고	-9.53931
▁가리킨다	-9.53933
▁평가	-9.54013
▁하지	-9.54086
▁반대	-9.54133
▁발생	-9.54162
▁노선	-9.54183
▁지역의	-9.54206
▁기업	-9.54255
▁참가	-9.54275
▁운행	-9.54332
세는	-9.5444
▁열	-9.54511
▁도입	-9.54529
성이	-9.54635
▁설립	-9.5464
망	-9.54678
[	-9.54692
록	-9.54693
▁발표	-9.54986
▁연	-9.55148
▁방식	-9.55187
촌	-9.55247
▁맞지	-9.55283
▁나머지	-9.55353
▁1970	-9.55371
▁다만	-9.55412
필	-9.55491
▁최	-9.55508
▁전자	-9.55532
▁P	-9.55623
▁자리	-9.55774
▁아시아	-9.55806
▁채	-9.55948
외	-9.5603
▁전국	-9.56066
하지만	-9.56144
▁구조	-9.56151
▁되돌려	-9.5634
▁물론	-9.56415
▁영	-9.56487
▁의하여	-9.56682
▁것과	-9.56738
le	-9.56845
▁알고	-9.56972
ᆷ을	-9.57103
▁맡았다	-9.57185
u	-9.57189
▁유명한	-9.57366
▁상황	-9.57404
▁프로젝트	-9.57494
▁세력	-9.57588
▁별	-9.57645
▁지배	-9.57721
져	-9.57743
림	-9.58097
▁표준	-9.58151
30	-9.58212
세가	-9.5826
▁하나로	-9.58297
▁못	-9.58348
되기	-9.58358
▁E	-9.58571
▁위에	-9.58579
▁부산	-9.58616
▁쉽게	-9.58628
범	-9.58812
▁경우에는	-9.58889
▁1993	-9.58916
했을	-9.59095
격	-9.59103
풍	-9.59205
TV	-9.59208
▁있다는	-9.59271
▁영국의	-9.59359
▁문	-9.59387
있는	-9.5943
▁선발	-9.59435
변	-9.59465
▁1994	-9.59555
▁북부	-9.59743
북	-9.59777
▁중에	-9.59808
▁사람들이	-9.59841
▁선수권	-9.59872
일에는	-9.59914
▁하나의	-9.59943
하였는데	-9.59986
리에	-9.5999
숙	-9.60001
▁주신	-9.60012
▁사용할	-9.60336
▁시작	-9.60356
▁쓴	-9.6038
▁비해	-9.6039
▁적이	-9.60471
▁여기서	-9.60482
들에게	-9.60501
▁갖고	-9.60524
▁연기	-9.60677
▁책	-9.60679
▁마음	-9.60683
결	-9.60702
옥	-9.6079
▁W	-9.60855
▁1989	-9.60878
담	-9.6088
▁몸	-9.60958
▁결혼	-9.61005
▁발견	-9.61017
▁존재한다	-9.61117
▁잠시	-9.61261
▁손	-9.6129
▁신라	-9.61397
▁소설	-9.61465
25	-9.61522
▁마을	-9.61565
▁데이터	-9.61566
되며	-9.6161
스타	-9.6172
14	-9.61754
▁구성	-9.61822
▁관심	-9.61945
▁공립	-9.61996
▁확인해	-9.62005
흐	-9.62023
팀	-9.62146
▁과정에서	-9.62245
▁40	-9.6242
▁새로	-9.62647
_1	-9.62653
면적은	-9.62724
▁가능한	-9.62729
▁출연	-9.62825
▁제국	-9.6288
▁우선	-9.62883
▁입단	-9.62891
▁돈	-9.63021
▁과정	-9.6303
헌	-9.63062
▁현재의	-9.63076
▁생성	-9.63174
▁인기	-9.63227
되었으나	-9.63337
▁추정	-9.63561
▁구성되어	-9.63662
섬	-9.63676
▁디자인	-9.63697
향	-9.63824
▁아닙니다	-9.63844
▁청	-9.63846
▁못했다	-9.63872
▁정의	-9.63896
▁1992	-9.64061
▁등과	-9.64224
▁요구	-9.64254
▁이름이	-9.64313
칸	-9.64353
▁사이의	-9.64369
▁불리는	-9.6437
▁물	-9.64435
▁확장	-9.64466
들에	-9.64526
▁행동	-9.64575
▁점	-9.64578
▁국가대표팀	-9.64596
언	-9.6466
▁되었고	-9.64773
▁멤버	-9.6481
▁비롯한	-9.64811
an	-9.64828
▁이듬해	-9.6483
▁전혀	-9.65024
월에는	-9.65115
▁그래서	-9.65155
막	-9.6523
▁에너지	-9.65258
▁생각	-9.65436
▁기능	-9.65445
▁제안	-9.65482
▁일단	-9.65485
출	-9.65494
▁비슷한	-9.65547
▁다수	-9.65562
:12	-9.65642
▁교회	-9.65667
▁우주	-9.65726
▁모양	-9.65747
▁해군	-9.65965
▁의견	-9.65967
▁따른	-9.6609
▁심	-9.66424
▁우승을	-9.66424
▁하다	-9.66464
▁긴	-9.66467
톤	-9.66496
▁설명	-9.66509
쇼	-9.66535
▁&	-9.66538
▁텔레비전	-9.66558
▁위해서	-9.66589
▁말했다	-9.66611
▁정리	-9.66636
▁KBS	-9.66662
re	-9.66858
▁주변	-9.66881
먼	-9.66936
▁수많	-9.66982
▁in	-9.67008
▁그것	-9.67024
때	-9.67025
▁놓아	-9.67038
▁모델	-9.67043
王	-9.67095
▁북	-9.6742
中	-9.67492
▁눈	-9.675
21	-9.67608
▁대구	-9.67702
합	-9.67729
▁곳에	-9.67793
▁부족	-9.67903
▁그런데	-9.67951
▁참	-9.67984
▁경상북도	-9.67989
▁국내	-9.68217
▁0	-9.68238
▁전문	-9.68252
▁대해서	-9.68324
▁to	-9.68326
황	-9.6841
▁지명	-9.68472
래	-9.68473
▁수정	-9.68519
쓰	-9.68529
▁뉴욕	-9.68536
▁이해	-9.68594
▁공연	-9.68614
▁있으나	-9.68645
▁위치	-9.68712
▁종교	-9.68722
▁스포츠	-9.68844
▁도로	-9.68903
만이	-9.68911
ro	-9.68921
:21	-9.6897
▁작전	-9.6899
▁지침	-9.69052
文	-9.69132
▁그들은	-9.69171
▁하실	-9.69202
견	-9.69234
▁브라질	-9.69645
▁사이에서	-9.69709
▁가족	-9.69977
▁네덜란드	-9.70023
▁설치	-9.70108
ᅵᆫ	-9.7017
야마	-9.70264
▁소프트웨어	-9.70273
운동	-9.70275
j	-9.70328
▁아프리카	-9.70338
삼	-9.70341
가지	-9.70455
▁형식	-9.70484
▁많다	-9.7061
▁명칭	-9.70811
축	-9.70849
자리	-9.70855
▁업무	-9.70893
찬	-9.70961
▁항공	-9.70996
Z	-9.71108
▁나중에	-9.7125
▁반응	-9.71338
▁보내	-9.71358
▁인천	-9.71365
▁버전	-9.71438
했다고	-9.71534
▁1988	-9.71535
▁민족	-9.71607
▁생각합니다	-9.71659
▁산업	-9.71688
▁해석	-9.71726
▁마찬가지로	-9.71747
▁않다	-9.71854
머	-9.71953
▁성장	-9.72077
누	-9.72118
▁카	-9.72181
▁미국에서	-9.72203
퍼	-9.72212
익	-9.72272
흥	-9.72429
같은	-9.72432
▁입장	-9.72461
▁길	-9.72472
▁필요한	-9.72491
▁지냈다	-9.72505
▁졸업	-9.72519
▁관리자	-9.72522
▁주도	-9.72711
▁홍	-9.72738
▁선수로	-9.72779
▁실제	-9.72848
▁엔진	-9.72894
33	-9.72907
월부터	-9.72928
▁문자	-9.73101
▁이적	-9.73218
▁알려드립니다	-9.73337
만을	-9.73436
▁일제	-9.73446
▁혁명	-9.73454
▁의원	-9.73458
▁말을	-9.73477
▁개념	-9.73534
▁앞으로	-9.73635
▁국민	-9.73654
골	-9.73656
입	-9.73659
▁실제로	-9.73791
택	-9.73835
센	-9.74012
▁것이었다	-9.74038
▁폴란드	-9.74074
▁영토	-9.74215
▁여기에	-9.7427
▁분석	-9.7432
▁최종	-9.74374
명이다	-9.74409
▁통합	-9.74475
▁동물	-9.74485
48	-9.74562
스트	-9.74583
▁있었고	-9.7472
▁최근	-9.7475
▁도움	-9.74765
▁만화	-9.74769
▁피해	-9.74783
▁대상	-9.74862
허	-9.74881
▁작가	-9.74975
일본	-9.75028
▁단어	-9.75066
▁지역에서	-9.75097
▁국회의원	-9.75169
악	-9.75199
장을	-9.75264
ᆯ레	-9.75284
하시기	-9.75402
새	-9.75438
▁방	-9.7547
▁이용하여	-9.75495
▁기본	-9.75503
40	-9.75564
돼	-9.75588
문화	-9.75612
▁아무	-9.75666
좌	-9.75698
▁위의	-9.75709
▁의미한다	-9.75712
▁X	-9.75713
▁기록했다	-9.758
▁선택	-9.75874
하라	-9.75895
▁태양	-9.75918
보다는	-9.7594
▁때는	-9.7596
▁R	-9.76173
▁오스트레일리아	-9.76215
자로	-9.76226
▁약간	-9.76301
▁끝에	-9.76402
▁나오는	-9.7641
책	-9.76463
▁몇몇	-9.765
▁위키	-9.76587
▁수상	-9.76674
▁하며	-9.76717
▁상대로	-9.76775
es	-9.76777
▁능력	-9.76787
_	-9.76791
▁차량	-9.76808
▁대체	-9.76857
▁구간	-9.7687
▁현상	-9.77103
▁연합	-9.77105
▁전의	-9.77145
▁상대	-9.77159
▁H	-9.77426
상의	-9.77448
▁시험	-9.77463
▁단체	-9.77476
▁UEFA	-9.77504
▁저는	-9.77699
▁기본적인	-9.77781
님이	-9.77795
인민공화국	-9.77936
▁연결	-9.78025
궁	-9.78051
▁연습	-9.78133
▁학생	-9.78199
▁편집이	-9.78226
▁기존	-9.78319
습니다	-9.78344
▁내부	-9.78437
▁발	-9.78488
▁과학	-9.78517
▁사용자들이	-9.78563
대한민국	-9.78637
▁한국의	-9.78641
▁애	-9.78655
되기도	-9.78722
▁높이	-9.78768
▁윤	-9.78787
▁걸	-9.78792
총	-9.78939
귀	-9.78945
▁위키백과에서	-9.79045
▁1950	-9.79184
▁만드는	-9.79273
▁1960	-9.79286
ᆻ을	-9.79323
el	-9.79335
▁연속	-9.79458
님께서	-9.79471
▁뿐	-9.79501
三	-9.79517
▁옛	-9.79535
없이	-9.7955
▁요리	-9.7956
▁속	-9.79608
▁라디오	-9.7961
▁못하고	-9.7968
▁낮은	-9.79705
▁오스트리아	-9.7976
▁제국의	-9.79763
▁가능하다	-9.79927
▁사용한다	-9.79932
▁경험	-9.79956
조선	-9.7997
▁판단	-9.79991
▁본래	-9.79992
▁하루	-9.80001
▁식민지	-9.8001
척	-9.8008
▁없고	-9.80089
▁전라남도	-9.80183
▁증가	-9.8022
워	-9.80264
▁포함	-9.80287
▁가치	-9.8053
▁가문	-9.80572
혜	-9.80598
▁V	-9.80631
▁캐릭터	-9.80634
▁지적	-9.80696
▁기존의	-9.80721
▁쇼	-9.80758
▁G	-9.80815
협회	-9.8084
▁판	-9.80875
▁문서가	-9.80898
▁부른다	-9.80935
26	-9.81005
▁정규	-9.81041
▁사고	-9.8118
▁준비	-9.81254
군의	-9.81258
▁입	-9.81259
▁의하면	-9.81314
▁변	-9.81321
▁지난	-9.81329
▁건축	-9.81384
▁1991	-9.81407
▁고등학교	-9.81575
▁없어	-9.81592
위원회	-9.81595
▁자동차	-9.8179
효	-9.81792
▁여전히	-9.81822
▁참고하시면	-9.81824
▁개최	-9.82069
▁땅	-9.82175
▁출전	-9.82351
시즌	-9.82443
▁1945	-9.82483
▁효과	-9.82564
▁페	-9.82595
▁이유는	-9.82614
ch	-9.82644
35	-9.82756
道	-9.82759
▁이루어져	-9.82796
』	-9.8282
▁바탕으로	-9.82822
▁분야	-9.82857
▁오후	-9.82886
▁대표적인	-9.82944
▁전통	-9.83037
▁정당	-9.8306
▁남성	-9.83068
▁팔	-9.83077
▁둘	-9.83096
▁스웨덴	-9.83104
▁제공	-9.83127
▁추	-9.83141
자의	-9.83201
▁정식	-9.83322
▁선언	-9.83327
하려	-9.8346
[[	-9.83568
《	-9.8357
임을	-9.83589
▁세포	-9.83909
▁04:4	-9.83936
▁본선	-9.84069
▁임명	-9.84077
▁지진	-9.84125
▁사랑	-9.84197
▁표시	-9.84261
기로	-9.84326
되었지만	-9.84402
▁차례	-9.84424
▁제한	-9.84471
st	-9.84471
▁일어난	-9.84486
▁서부	-9.84545
하기로	-9.84552
▁속도	-9.84604
23	-9.84637
:20	-9.84647
▁집합	-9.84659
하려는	-9.84743
▁통일	-9.84743
▁조정	-9.84808
▁본인이	-9.84824
▁실험	-9.8491
▁일이	-9.84921
▁이론	-9.85014
▁내에서	-9.85066
▁뿐만	-9.85114
▁장치	-9.85198
료	-9.8529
▁요소	-9.85326
▁부상	-9.85403
▁웹	-9.8543
링	-9.85441
▁1987	-9.85615
▁승격	-9.85618
ᅡᅡᅡᅡᅡᅡᅡᅡᅡᅡᅡᅡᅡᅡᅡᅡ	-9.85625
▁명령	-9.85671
▁아일랜드	-9.85729
▁경찰	-9.85771
▁동부	-9.85831
▁그렇게	-9.85852
▁이제	-9.8586
녀	-9.85867
되었던	-9.85888
페	-9.85916
▁논의	-9.86029
▁행사	-9.86078
▁수준	-9.86154
▁은퇴	-9.86165
▁지도	-9.8629
▁1985	-9.86331
▁이것이	-9.86354
▁선출	-9.86386
립	-9.86396
▁성적	-9.864
▁N	-9.86508
▁근거	-9.86586
▁키	-9.86637
▁성격	-9.86708
맨	-9.8671
owiki	-9.86736
했습니다	-9.86769
▁제품	-9.86784
▁구단	-9.86797
▁무역	-9.86846
62	-9.86927
:29	-9.86969
▁규정	-9.86997
▁시민	-9.87013
:26	-9.87085
</	-9.87094
▁사용자가	-9.87376
동에	-9.87387
▁검사	-9.87391
▁집단	-9.8744
정보	-9.87442
▁만나	-9.87476
▁설계	-9.87556
▁적용	-9.87613
▁환경	-9.87633
ᆯ러	-9.87715
이므로	-9.87799
▁형태로	-9.87822
▁경상남도	-9.87919
걸	-9.87958
권을	-9.87985
례	-9.88
▁기반	-9.8804
:18	-9.88043
80	-9.88068
▁디지털	-9.88093
▁본관	-9.88121
▁사람은	-9.88212
▁아니다	-9.88238
▁『	-9.88247
▁편	-9.88251
:19	-9.88554
알	-9.88577
▁나무	-9.88714
ᅩ	-9.88748
▁떨어진	-9.8876
▁도시로	-9.88858
▁레	-9.8896
▁거리	-9.88993
▁작성	-9.88995
▁연주	-9.8901
ᆨ스	-9.89129
no	-9.89198
▁증명	-9.8924
▁못한	-9.89358
▁살	-9.89365
턴	-9.89374
사용자	-9.89469
▁노력	-9.89558
▁처음에	-9.89571
▁더불어	-9.89573
▁북한	-9.89597
▁개혁	-9.89599
교육	-9.89653
▁동계	-9.89653
▁무기	-9.89654
하다가	-9.89673
▁되돌렸습니다	-9.89692
▁등에서	-9.89715
24	-9.8975
▁확대	-9.89974
율	-9.90049
▁안에	-9.90241
화인민공화국	-9.90333
人	-9.90375
▁통치	-9.90378
▁책임	-9.90383
22	-9.90392
간의	-9.90649
▁천황	-9.90729
▁획득	-9.90735
▁사용된다	-9.90755
:10	-9.9077
▁시작하였다	-9.90848
東	-9.90985
▁밤	-9.9101
▁쓰	-9.91053
▁경우도	-9.91067
▁집	-9.91072
▁정확한	-9.91101
▁전환	-9.91127
▁유일한	-9.91171
군은	-9.91176
▁가리키는	-9.91313
▁않았다고	-9.91327
▁사용하여	-9.9136
▁a	-9.91385
▁정치적	-9.91405
▁접근	-9.91408
▁친일	-9.9141
▁예수	-9.91486
▁기능을	-9.91532
th	-9.91557
▁제작된	-9.91561
인한	-9.91662
춘	-9.91667
▁MBC	-9.91687
▁배치	-9.91758
이기	-9.91811
:16	-9.91813
▁남쪽	-9.91822
회의	-9.9183
▁드	-9.91878
:49	-9.91891
▁강한	-9.9202
지도	-9.92096
▁중에서	-9.92109
점을	-9.92126
▁장난	-9.92139
다가	-9.92179
▁기회	-9.92201
▁각종	-9.92224
▁스위스	-9.92234
기가	-9.9228
▁나이	-9.9234
:58	-9.92351
▁사용자와	-9.92443
▁비디오	-9.92451
▁시에	-9.92576
南	-9.92626
룡	-9.9266
▁개통	-9.92669
▁귀	-9.92673
▁조선민주주의	-9.92691
▁지하철	-9.92754
://	-9.92761
:23	-9.92766
▁일반적인	-9.9284
한다는	-9.92903
:48	-9.92906
▁촬영	-9.9297
▁추진	-9.93002
라고도	-9.93139
▁토론란에	-9.93144
子	-9.93157
묘	-9.93195
▁막	-9.93204
▁밖에	-9.93236
골을	-9.93292
▁병	-9.93292
▁위치하고	-9.93353
▁이전에	-9.9336
100	-9.93462
▁초등학교	-9.93496
▁지키는	-9.93504
co	-9.93508
하려고	-9.93612
▁서쪽	-9.93678
:17	-9.93695
▁부분이	-9.93764
07	-9.93898
▁향	-9.93949
▁홍콩	-9.93958
▁나온	-9.94126
▁인식	-9.94183
한다고	-9.94195
▁참고	-9.9428
음악	-9.9441
▁종류	-9.94423
됩니다	-9.94464
▁기후	-9.9452
▁없다고	-9.94559
▁연장	-9.94577
방송	-9.94686
▁사람들은	-9.94692
▁등장	-9.94756
▁영역	-9.94791
27	-9.94934
▁전부	-9.94978
▁삼성	-9.95003
▁부인	-9.95024
▁않을	-9.95051
▁가정	-9.95125
ra	-9.95166
▁떨어져	-9.95311
08	-9.95325
▁파리	-9.95366
▁의사	-9.95369
▁투표	-9.95478
99	-9.9551
▁귀하	-9.95629
▁반면	-9.95727
명으로	-9.95732
▁사업	-9.95751
▁복귀	-9.95788
▁주시기	-9.95807
▁마리아	-9.95863
▁친	-9.95934
▁시작되었다	-9.9599
▁접	-9.9609
샤	-9.9611
한국	-9.96114
▁아니	-9.96123
▁권한	-9.9613
▁적은	-9.96145
:09	-9.96154
▁사실상	-9.9617
▁1986	-9.96174
▁잘못	-9.96192
센터	-9.96303
냐	-9.96367
▁해외	-9.96452
▁조약	-9.96627
▁오히려	-9.96691
▁해당한다	-9.96714
▁종료	-9.96722
▁04:3	-9.96755
:13	-9.96802
▁헌법	-9.9681
▁자동	-9.96897
▁60	-9.96898
:22	-9.96918
:44	-9.96948
:11	-9.96957
세대	-9.9697
검	-9.97012
명은	-9.97017
▁개선	-9.97093
:14	-9.97109
▁나와	-9.97173
위로	-9.97202
ᅳ로	-9.97345
▁맡아	-9.97363
▁식물	-9.97385
▁멕시코	-9.97386
▁사망	-9.97397
▁The	-9.97398
▁가까운	-9.97455
▁대중	-9.97535
天	-9.97596
액	-9.97609
섭	-9.97618
▁구역	-9.97635
▁제기	-9.97653
▁실행	-9.9767
▁제정	-9.9767
▁그린	-9.97711
독	-9.97732
▁헝가리	-9.97757
▁국립	-9.97798
씩	-9.978
균	-9.97866
나무	-9.97872
ᅳ	-9.97879
▁위키백과를	-9.9788
▁자신들	-9.97968
法	-9.97975
▁디	-9.98121
▁왕조	-9.98208
▁조지	-9.98273
▁거	-9.98312
▁전차	-9.98324
▁단위	-9.98397
▁뉴스	-9.98399
▁오늘날	-9.98492
▁감소	-9.98569
城	-9.98613
▁되지	-9.98613
▁사용되는	-9.98629
▁200	-9.98697
+	-9.98707
▁의해서	-9.98711
하신	-9.98765
▁문학	-9.98819
:08	-9.9891
▁시행	-9.99019
▁분리	-9.99096
▁출시	-9.99154
▁의회	-9.99157
시키는	-9.99226
▁강제	-9.99236
관계	-9.99282
▁광주	-9.99331
▁설정	-9.99348
▁이집트	-9.99503
▁조건	-9.99521
기에	-9.99562
▁회장	-9.99588
▁1984	-9.996
q	-9.9965
▁수행	-9.99656
▁훈련	-9.99665
▁제임스	-9.99683
▁종종	-9.99683
▁언론	-9.9975
▁발달	-9.99833
ᅪ	-9.99866
▁북쪽	-9.99941
▁제조	-9.99978
▁반복되는	-10.0029
▁제외한	-10.003
이던	-10.0032
▁만들었다	-10.0038
였고	-10.0041
▁지휘	-10.0053
▁메	-10.0057
▁네트워크	-10.006
글	-10.0063
생활	-10.0073
▁공작	-10.0073
▁윌리엄	-10.0077
▁지정	-10.0077
▁열차	-10.0089
29	-10.0098
▁설립된	-10.0102
▁법률	-10.0103
09	-10.0103
▁1982	-10.0103
▁광고	-10.0105
▁기억	-10.011
▁관측	-10.0111
▁직후	-10.0113
▁본인	-10.0116
》,	-10.0119
▁나타나	-10.0121
▁통하여	-10.0125
▁올려	-10.0125
▁지나	-10.0129
▁한국에서	-10.0132
37	-10.014
▁곳이	-10.0145
▁강원도	-10.0147
國	-10.0148
▁다리	-10.0152
▁이루어진	-10.0153
▁지식	-10.0158
▁결성	-10.0162
▁외부	-10.0165
▁전투에서	-10.0176
安	-10.0188
kg	-10.019
▁코드	-10.0191
▁특별	-10.0191
▁항상	-10.0191
▁주는	-10.0193
월까지	-10.0196
▁일을	-10.0199
▁행성	-10.0199
▁기록을	-10.02
ᅦ서	-10.0205
▁이래	-10.0208
▁이후에	-10.0216
▁들어가	-10.0218
▁터키	-10.0218
▁오브	-10.0226
▁발언	-10.0227
▁삶	-10.0233
:27	-10.0239
▁실시	-10.024
▁시도	-10.0241
▁용어	-10.0243
▁있으시면	-10.0247
70	-10.0248
▁어떠한	-10.0248
▁무장	-10.0253
▁1974	-10.0255
:38	-10.0272
:15	-10.0284
06	-10.0284
▁만들	-10.0286
▁주장했다	-10.0286
▁어린	-10.0289
▁방어	-10.0294
서울	-10.03
平	-10.0303
▁구분	-10.0306
▁베	-10.0312
▁하이	-10.0326
▁국경	-10.0331
네요	-10.0332
▁하는데	-10.034
▁저항	-10.0345
군이	-10.0345
▁투수	-10.0347
▁런던	-10.0361
▁보시면	-10.0362
취	-10.0363
▁교통	-10.037
▁충돌	-10.0388
ar	-10.0392
토론	-10.0395
▁관할	-10.0396
▁철도역	-10.0398
▁만에	-10.0407
▁신문	-10.0408
34	-10.0412
▁미사일	-10.0413
▁부여	-10.0416
▁스타	-10.0418
▁표	-10.0421
틀	-10.0422
▁불린다	-10.0422
:25	-10.0435
이라고도	-10.0436
▁비밀	-10.0436
▁때에는	-10.0437
되어야	-10.0438
04	-10.0439
▁번호	-10.0443
▁조치	-10.0444
at	-10.0447
▁한다고	-10.0448
▁아내	-10.0452
▁주십시오	-10.0455
▁예선	-10.0459
▁사이트	-10.0459
▁구조를	-10.0461
▁안전	-10.0467
36	-10.0475
▁맥	-10.048
▁1983	-10.048
자를	-10.048
▁있었지만	-10.0483
▁공식적으로	-10.0485
▁점령	-10.0488
▁원소	-10.0493
▁국왕	-10.0494
학년	-10.0504
로써	-10.0512
리아	-10.0515
▁만들어진	-10.0521
▁개정	-10.0522
▁임시	-10.0525
▁일본에서	-10.0528
죠	-10.0529
탈	-10.0534
▁유명하다	-10.0538
▁올랐다	-10.0539
모토	-10.0539
▁빛	-10.054
▁동맹	-10.0544
▁비교적	-10.0545
▁쓰는	-10.0551
com	-10.0551
28	-10.0552
▁충청남도	-10.0558
▁일종이다	-10.0559
▁편집할	-10.0559
:34	-10.0561
▁태어나	-10.0563
▁덴마크	-10.0575
그룹	-10.0577
▁패	-10.058
사를	-10.0581
▁채널	-10.0584
▁등은	-10.059
▁지역을	-10.0592
생각하신다면	-10.0596
▁방향	-10.0596
:28	-10.0597
▁위치해	-10.06
▁L	-10.0602
▁붕괴	-10.0605
▁유로	-10.0609
▁조선시대	-10.0612
▁특수	-10.0612
되	-10.0622
▁서술	-10.0623
▁통한	-10.0632
▁시장	-10.0633
▁박사	-10.064
▁준	-10.0643
측	-10.0649
▁매년	-10.0653
▁입력	-10.0657
▁빈	-10.0658
▁물질	-10.0661
차원	-10.0662
▁평화	-10.0681
▁팬	-10.0684
▁1979	-10.069
▁마리	-10.0694
▁골	-10.0697
▁돌	-10.0698
▁명의	-10.07
▁초대	-10.0705
▁왔다	-10.0711
▁특징	-10.0712
대의	-10.0716
것	-10.0718
▁최고의	-10.0718
▁세웠다	-10.0719
▁종합	-10.072
▁쓰인다	-10.0721
법을	-10.0721
▁요청합니다	-10.0723
산업	-10.0735
쥐	-10.0743
셔	-10.0763
▁전개	-10.0768
▁외에도	-10.0768
학과	-10.0773
氏	-10.0774
▁간의	-10.0779
▁감	-10.079
▁정권	-10.0793
▁헤	-10.0796
들로	-10.0797
▁절대	-10.08
▁기자	-10.0803
▁공항	-10.0803
▁금지	-10.0804
▁성우	-10.0806
▁중간	-10.0808
▁수록	-10.081
기관	-10.0813
▁사용한	-10.0814
▁등록	-10.0815
▁교체	-10.0817
줄	-10.0819
▁주었다	-10.082
▁인용	-10.0821
▁나서	-10.0826
▁경계	-10.0828
▁월드	-10.0828
▁사용자에게	-10.083
州	-10.0834
▁조각	-10.0836
▁핀란드	-10.0837
:37	-10.0839
▁인정	-10.0852
▁방식으로	-10.0852
as	-10.0859
했기	-10.0864
▁쓰고	-10.0869
▁비록	-10.0873
▁검색	-10.0873
▁태평양	-10.0876
▁음력	-10.088
▁대상으로	-10.0885
▁예술	-10.0886
▁협력	-10.0894
▁지하	-10.0898
47	-10.0899
▁보이는	-10.0901
▁갖춘	-10.0903
▁답변	-10.0903
▁대회에서	-10.0907
▁수학	-10.0911
▁보아	-10.0914
▁친구	-10.0921
▁발표했다	-10.0922
▁지위	-10.0922
으며	-10.0926
▁참여하였다	-10.093
▁프리	-10.093
지역	-10.0932
전에서	-10.0936
▁동생	-10.0941
육	-10.0952
▁고구려	-10.0953
▁불교	-10.0959
▁포르투갈	-10.0961
▁시간이	-10.0961
▁기초	-10.0964
▁거주	-10.0965
▁즉위	-10.0968
▁타이틀	-10.0974
▁동의	-10.0982
▁1973	-10.0989
▁폭발	-10.099
▁나가	-10.0991
▁자체	-10.0992
▁광	-10.0999
▁1972	-10.1
▁계열	-10.1
자와	-10.1003
사가	-10.1003
▁재직	-10.1005
▁구성된	-10.1008
:39	-10.1015
49	-10.1016
▁득점	-10.1019
▁남겨주시기	-10.1021
▁칼	-10.1026
▁목표	-10.1039
▁치료	-10.1043
▁가입	-10.1049
▁형성	-10.107
:41	-10.1075
경기에	-10.1084
▁오래	-10.1086
Q	-10.1088
▁부문	-10.1089
▁정치인	-10.1095
되었는데	-10.1098
팔	-10.1105
였으며	-10.1106
▁기계	-10.111
▁조금	-10.1113
▁인하여	-10.1117
:36	-10.112
이닝	-10.1123
:55	-10.1126
▁사용하고	-10.1127
▁빠른	-10.1145
나라	-10.116
:40	-10.1166
▁있었는데	-10.1167
▁앞서	-10.1167
60	-10.1167
▁남북	-10.1168
▁for	-10.1175
▁뜻이	-10.1179
▁선수단	-10.1179
▁체제	-10.1181
▁제거	-10.1186
▁카드	-10.1187
▁병력	-10.1187
▁출생	-10.1189
▁필리핀	-10.12
▁온라인	-10.1202
▁결합	-10.1203
▁포지션	-10.1208
▁훨ᄊ	-10.1208
▁이미지	-10.1209
▁지속적으로	-10.121
▁얻었다	-10.1214
EC	-10.1215
▁설치되어	-10.1235
날	-10.1238
義	-10.1246
▁1975	-10.1247
▁보여	-10.1247
▁갈	-10.1249
▁세상	-10.1254
장이	-10.1254
:47	-10.1257
엽	-10.1261
▁승인	-10.1264
▁받는	-10.1266
▁가능성이	-10.1268
친	-10.127
▁한글	-10.1274
▁이끌고	-10.1277
▁제대로	-10.1277
▁부근	-10.1277
:45	-10.1279
ᆯ로	-10.1286
ᆻ음을	-10.1286
▁부대	-10.1291
87	-10.1292
▁논란이	-10.1293
46	-10.1305
▁총리	-10.1311
스키	-10.1312
32	-10.1314
▁대형	-10.1315
▁출판	-10.1318
:07	-10.1318
▁개봉한	-10.1324
▁앞	-10.133
▁목적	-10.1331
元	-10.1335
▁인수	-10.1336
go	-10.1342
▁내에	-10.1346
님의	-10.1347
관리	-10.1351
탑	-10.1354
▁반드	-10.1359
▁이번	-10.1361
▁궤도	-10.1362
▁한때	-10.1365
▁임의	-10.1373
▁아르헨티나	-10.1376
▁토지	-10.1377
▁시설	-10.1379
▁사회적	-10.1385
▁대화	-10.1389
▁진화	-10.1399
시설	-10.1403
▁개시	-10.1403
▁그냥	-10.1405
사회	-10.1409
▁1948	-10.1412
▁홈	-10.1415
▁소장	-10.1419
▁계산	-10.142
▁발사	-10.1424
다른	-10.1428
쉬	-10.1429
▁푸	-10.1435
▁따로	-10.1437
▁외에	-10.1446
벌	-10.1452
▁속에서	-10.1457
문을	-10.146
정책	-10.1461
▁하셨는지	-10.1464
▁귀하께서	-10.1464
:50	-10.1468
▁칸	-10.1472
▁발표한	-10.1482
거리	-10.1488
▁써	-10.1493
뿐만	-10.1497
▁이곳	-10.1501
56	-10.1504
▁사회주의	-10.1509
세기에	-10.1513
▁해방	-10.1513
▁패배	-10.1526
▁취임	-10.1527
▁말이다	-10.153
▁수립	-10.153
세계	-10.1531
▁위반하지	-10.1533
▁개봉	-10.1543
▁1940	-10.1545
▁시대에	-10.1549
▁논문	-10.1551
un	-10.1553
지를	-10.1554
▁뛰어난	-10.1557
is	-10.156
▁오랜	-10.1561
▁장군	-10.1563
▁장소	-10.157
▁전라북도	-10.157
▁오전	-10.1571
▁혹시	-10.1576
▁출처	-10.1577
▁의견이	-10.158
시마	-10.1587
정부	-10.1589
▁노동	-10.1589
▁1981	-10.1589
▁de	-10.1592
▁짧은	-10.1594
▁참고하시거나	-10.1594
▁흔히	-10.1594
▁핵심	-10.1596
▁메이저	-10.1597
il	-10.1617
:42	-10.1621
▁양식	-10.1625
la	-10.1627
▁해체	-10.1632
77	-10.1633
▁군인	-10.1636
▁민주당	-10.1641
▁선수들	-10.1642
03	-10.1648
▁담당	-10.1648
▁위협	-10.1651
▁슈	-10.1654
▁차이가	-10.1657
50	-10.1659
▁전으로	-10.1659
염	-10.1659
78	-10.1667
▁머리	-10.1667
▁다중	-10.1677
:04	-10.1683
▁특별한	-10.1683
▁해당하는	-10.1686
▁중화민국	-10.1695
▁버스	-10.1704
▁유리	-10.1705
:57	-10.1709
▁O	-10.1715
▁홈런	-10.1718
▁경쟁	-10.1719
분류	-10.1723
▁통해서	-10.1726
볼	-10.1732
하나	-10.1735
▁후반	-10.1737
▁방영	-10.1744
▁발견된다	-10.1747
▁강화	-10.1748
▁에피소드	-10.1749
▁파괴	-10.1752
▁육상	-10.1755
▁시기에	-10.1767
▁측정	-10.1785
川	-10.1792
▁대규모	-10.1793
▁예정	-10.1801
시킨	-10.1806
▁기대	-10.1806
▁공군	-10.1807
▁점차	-10.1809
종의	-10.1814
텐	-10.1817
▁문서로	-10.1823
▁작용	-10.1825
▁LG	-10.1827
98	-10.1834
▁여행	-10.1835
▁보존	-10.1838
▁옮겨	-10.1841
으	-10.1855
▁시즌에	-10.1855
▁일정	-10.1855
년대에	-10.1858
▁잡지	-10.1865
▁통	-10.1865
▁복구	-10.1866
▁등장하는	-10.1871
▁달러	-10.1873
▁보기	-10.1873
▁의식	-10.1879
최	-10.1886
문서	-10.1889
▁포함되어	-10.1895
▁이용해	-10.1899
74	-10.1899
55	-10.1899
아이	-10.19
▁항복	-10.1901
▁대응	-10.1908
88	-10.1913
▁사례	-10.1914
∼	-10.1917
▁항성	-10.1924
ne	-10.1926
▁연맹	-10.193
▁있었으나	-10.1933
몬	-10.1942
▁조성	-10.1952
▁수가	-10.1953
▁해결	-10.1966
▁즉시	-10.1977
▁봉	-10.1977
▁미디어	-10.198
▁장관	-10.1981
96	-10.1983
▁그해	-10.1984
▁홍보	-10.1985
▁정부가	-10.1987
事	-10.1995
・	-10.1995
寺	-10.1995
▁1968	-10.1997
만큼	-10.2007
▁동일한	-10.2008
▁되면	-10.2015
▁특성	-10.2016
:05	-10.2017
:46	-10.2017
▁1961	-10.2026
함에	-10.2031
단체	-10.2038
▁오른쪽	-10.2043
▁좋아	-10.2046
▁아주	-10.2057
▁은하	-10.2065
:43	-10.2067
▁떠나	-10.2076
▁시위	-10.2077
회사	-10.2079
혼	-10.2082
05	-10.2089
▁실수	-10.2091
▁전략	-10.2092
▁당시에	-10.2097
:59	-10.2099
▁선정	-10.2114
▁정책과	-10.2115
▁시각	-10.2118
▁화학	-10.2121
▁속에	-10.2126
▁침공	-10.2126
▁왼쪽	-10.2128
▁넓은	-10.2134
▁철	-10.2135
▁여름	-10.2138
려고	-10.2138
시키고	-10.214
▁학생들	-10.2141
▁공동체	-10.2142
▁적절한	-10.2143
▁앞에	-10.2147
▁꽃	-10.2155
▁숫자	-10.2155
▁현재까지	-10.2164
카와	-10.2164
하였습니다	-10.2172
95	-10.2183
▁위치한다	-10.2185
기술	-10.2187
▁경고	-10.2189
▁창	-10.2191
▁태풍	-10.2193
▁체결	-10.2194
폰	-10.2199
▁강력하	-10.2199
성과	-10.22
宗	-10.2201
▁평	-10.2207
▁계승	-10.2216
▁중단	-10.2218
▁대한민국에서	-10.2225
▁주기	-10.2236
66	-10.2239
문제	-10.2242
▁안내에	-10.2252
해주세요	-10.2254
et	-10.2265
▁동쪽	-10.2269
▁힘을	-10.2272
▁이끄는	-10.2272
ko	-10.2273
▁음식	-10.2273
▁안내	-10.2274
▁혐의	-10.2278
▁다섯	-10.2279
▁은행	-10.2282
라면	-10.2285
▁문서에서	-10.2299
▁집중	-10.2309
:35	-10.231
▁말이	-10.2316
▁제목	-10.2319
▁정말	-10.2322
▁주인공	-10.2323
헤	-10.2324
버스	-10.233
:31	-10.233
▁500	-10.2336
든지	-10.234
公	-10.2342
▁여객철도	-10.2342
:33	-10.2347
▁공급	-10.2348
▁전달	-10.2352
▁사용되고	-10.2353
릉	-10.2353
▁폴	-10.2357
▁보도	-10.2359
▁상호	-10.2362
▁일대	-10.2364
▁이르는	-10.2367
▁역사상	-10.2376
ve	-10.2379
▁사실이	-10.2381
앙	-10.2383
▁권리	-10.2387
▁편성	-10.2393
▁기관	-10.2395
▁세운	-10.2397
▁유도	-10.2398
▁지금까지	-10.2401
군을	-10.2408
▁붙여	-10.2413
▁윈도우	-10.2415
▁발행	-10.2419
▁1971	-10.242
▁허용	-10.2422
▁1976	-10.2422
되면	-10.2429
▁부정	-10.2436
▁현실	-10.2453
드라마	-10.2457
▁통과	-10.2459
▁인사	-10.2465
▁형제	-10.2474
▁그것을	-10.2475
▁장식	-10.2478
▁녹음	-10.2487
▁오픈	-10.2489
수가	-10.2489
▁1949	-10.2496
우스	-10.2496
▁통제	-10.2497
▁알게	-10.2507
▁곳에서	-10.2513
농	-10.2515
응	-10.2519
▁올	-10.252
▁소수	-10.2523
▁없으며	-10.2526
:24	-10.2537
na	-10.2541
▁장기	-10.2546
▁거부	-10.2548
사의	-10.2553
들도	-10.2556
01	-10.2557
▁원자	-10.2563
▁반란	-10.2569
▁노르웨이	-10.257
:32	-10.2572
▁임명되었다	-10.2573
▁것처럼	-10.2573
▁페이지	-10.258
▁투	-10.258
▁신호	-10.2583
▁언급	-10.2585
▁권고	-10.2585
▁방향으로	-10.2587
▁1977	-10.2587
▁1930	-10.2587
▁1920	-10.2589
▁있었으며	-10.2593
▁베이징	-10.2599
▁태	-10.2603
압	-10.2616
▁밀도	-10.262
▁죽은	-10.2621
▁백제	-10.2622
學	-10.2627
90	-10.2633
▁집안	-10.2638
▁숲	-10.2641
세를	-10.2643
기는	-10.2643
▁합의	-10.2645
▁발생한	-10.2645
▁그에게	-10.265
사업	-10.2654
▁이하	-10.2655
▁온도	-10.2657
:56	-10.2668
▁1963	-10.267
갑	-10.2675
▁내각	-10.2675
39	-10.269
군에	-10.2695
▁추측	-10.2701
▁앞두고	-10.2705
▁폐	-10.2707
▁위해서는	-10.271
▁넣어	-10.2711
▁상황에서	-10.2713
▁하면	-10.2713
▁다르다	-10.2715
▁1965	-10.2718
존	-10.2719
▁이스라엘	-10.2722
라도	-10.2727
▁정신	-10.2728
▁사건이	-10.2729
▁하신	-10.273
푸	-10.2731
느	-10.2737
▁경영	-10.274
▁사후	-10.2742
▁신앙	-10.2744
▁색	-10.2745
▁주목	-10.2752
교회	-10.2752
▁나타내는	-10.2755
▁동쪽으로	-10.2759
▁고유	-10.276
▁태어난	-10.276
장은	-10.2762
▁이유	-10.2764
▁항목	-10.2777
▁일본군	-10.2779
혁	-10.2784
me	-10.2784
ce	-10.2785
▁해안	-10.2787
▁행정구역	-10.2787
▁소개	-10.2791
사와	-10.2792
▁찾아	-10.2792
▁정도의	-10.2793
▁영향력	-10.2794
▁가서	-10.2796
▁고전	-10.2797
▁위성	-10.2803
86	-10.2811
제도	-10.2824
▁둔	-10.2825
▁센터	-10.2826
▁기념	-10.2827
:53	-10.2833
▁폐지	-10.2833
▁기반으로	-10.2834
▁후기	-10.2836
빌	-10.2837
벽	-10.284
id	-10.2846
욱	-10.2848
▁오스만	-10.2851
▁샤	-10.2851
▁지낸	-10.2856
▁남편	-10.286
▁잔	-10.2862
역이다	-10.2863
▁유명	-10.2865
▁팀이	-10.2868
▁범위	-10.2868
▁여기	-10.2871
▁취소	-10.2872
▁주소	-10.2872
되자	-10.2874
ly	-10.2876
43	-10.2881
54	-10.2885
대를	-10.2886
밖에	-10.2889
▁평양	-10.2893
▁뜻한다	-10.2901
▁명단	-10.2902
▁데에	-10.2906
▁공개된	-10.2908
사단	-10.2911
▁저장	-10.2913
▁기호	-10.2914
▁따	-10.2921
長	-10.2924
一	-10.2924
▁소비에트	-10.2924
울	-10.2933
▁실패	-10.2934
▁묘	-10.2936
▁유사한	-10.294
국가	-10.2941
▁타고	-10.2943
41	-10.2945
▁상품	-10.2948
▁열대	-10.295
이었으며	-10.2951
▁전화	-10.2952
다고	-10.2954
▁역사적	-10.2956
▁교	-10.2958
▁회복	-10.2959
▁전주	-10.297
밀	-10.2971
기원전	-10.2972
도로	-10.2975
련	-10.2977
▁체계	-10.2978
▁폰	-10.2984
▁기원	-10.2986
세와	-10.2987
▁토론에	-10.2988
▁1946	-10.2991
▁지역은	-10.2991
폭	-10.2995
西	-10.2999
▁허락	-10.3001
▁넘겨주기	-10.3008
▁견해	-10.3008
군요	-10.3009
연대	-10.3009
레이	-10.3011
▁남겨	-10.3015
▁경우에	-10.3018
▁수입	-10.302
▁수상했다	-10.3021
ᆯ린	-10.3027
▁청나라	-10.3028
▁시작한	-10.3037
▁쿠	-10.304
▁라이선스	-10.3053
팀은	-10.3057
▁위반	-10.3058
선을	-10.3061
▁유나이티드	-10.3062
▁80	-10.307
5%	-10.3071
正	-10.3075
▁충분히	-10.3076
자들이	-10.3077
▁중세	-10.308
▁비교	-10.3083
하겠습니다	-10.3085
연구	-10.3088
▁시인	-10.3091
▁감정	-10.3091
76	-10.3091
▁나오	-10.3092
▁기구	-10.3092
▁완	-10.3093
ᅡ	-10.3094
ᆻ기	-10.3103
▁먹이	-10.3106
▁지속	-10.3108
▁루이	-10.3111
마리	-10.3111
▁상당	-10.3114
▁II	-10.3115
_2	-10.3115
▁이슬람	-10.3116
▁경주	-10.3118
▁쓰이는	-10.3126
▁협상	-10.3128
▁단백질	-10.3128
lo	-10.3128
▁벌	-10.3139
▁차이	-10.3139
um	-10.3141
94	-10.3144
▁얼굴	-10.3145
▁1966	-10.3149
▁회의	-10.3155
38	-10.3156
▁대륙	-10.3163
▁외교	-10.3163
컵	-10.3166
▁경기장	-10.3168
▁만큼	-10.3172
▁필	-10.3172
▁모아	-10.3173
▁투자	-10.3173
▁예상	-10.3174
개발	-10.3179
▁꼭	-10.3193
▁안정	-10.3193
만원	-10.3196
▁제주	-10.3201
▁가톨릭	-10.3203
de	-10.3203
▁부산광역시	-10.3209
▁1964	-10.321
▁속한다	-10.3221
ri	-10.3234
▁공포	-10.3238
니아	-10.324
▁장비	-10.3243
▁아르	-10.3244
▁록	-10.3244
▁젊은	-10.3245
▁만들고	-10.3249
ia	-10.325
▁연극	-10.3256
▁반도	-10.3259
▁높이는	-10.326
▁힘	-10.3267
▁핵	-10.3271
ic	-10.3275
▁들어서	-10.3275
▁지상	-10.3275
▁범	-10.3276
▁밀	-10.3277
▁1978	-10.3283
▁이후로	-10.3287
▁도구	-10.3291
▁중학교	-10.3293
리스	-10.3298
휴	-10.33
▁근무	-10.33
▁우크라이나	-10.33
슨	-10.3302
▁부탁	-10.3304
仁	-10.3306
德	-10.3306
▁논란	-10.331
▁맡고	-10.331
▁연재	-10.3314
▁때에	-10.3314
▁이야기를	-10.3314
▁투어	-10.3317
▁잘못된	-10.3317
del	-10.3319
67	-10.3325
▁점에서	-10.3329
▁죽음	-10.3332
▁몽골	-10.335
▁상태에서	-10.3364
▁기록이	-10.3369
▁수용	-10.3369
사로	-10.3371
▁1969	-10.3373
▁최초	-10.3374
▁발음	-10.3376
▁재판	-10.3379
▁보급	-10.338
▁굳	-10.338
칭	-10.338
上	-10.3383
▁인도네시아	-10.3384
▁심각하	-10.3386
▁침해	-10.3389
하고자	-10.3393
59	-10.3398
개가	-10.3401
200	-10.3409
▁세계에서	-10.3409
참	-10.3413
▁작곡	-10.3416
▁시의	-10.3417
▁플레이	-10.3425
▁슈퍼	-10.3431
▁법	-10.3438
▁라이브	-10.3443
배우	-10.3444
미국	-10.3446
▁달성	-10.3447
▁사망했다	-10.3447
은행	-10.345
▁구별	-10.345
▁기록하였다	-10.3451
하였지만	-10.3455
▁마이클	-10.3459
▁비행	-10.3461
타이	-10.3464
▁병합	-10.3465
84	-10.3473
▁초기에	-10.3473
▁회원	-10.348
▁이것을	-10.3481
▁나치	-10.3482
▁없다는	-10.3483
▁마지막으로	-10.3491
▁없을	-10.3491
72	-10.3495
▁전까지	-10.3495
이었으나	-10.3497
▁서명	-10.3509
징	-10.3511
▁점을	-10.3512
▁시리아	-10.3514
▁레이	-10.3523
▁국회	-10.3526
▁단계	-10.353
▁뿌리	-10.3531
ation	-10.3533
▁분을	-10.3535
▁경기에	-10.3536
▁오랫동안	-10.3542
▁콘	-10.3543
▁32	-10.3543
▁이유가	-10.3543
풀	-10.3544
▁논리	-10.3546
00	-10.3553
▁가졌다	-10.3555
▁수비	-10.3557
▁계급	-10.356
▁말씀	-10.3565
▁소리	-10.3569
▁미군	-10.3576
▁카를	-10.3578
▁공사	-10.3579
무라	-10.3589
▁is	-10.359
조사	-10.3593
▁부르는	-10.3597
시장	-10.3598
▁경우는	-10.3599
▁선의	-10.3602
▁존재하는	-10.3605
▁잎	-10.3606
▁대상이	-10.3608
▁네이버	-10.3611
▁암	-10.3613
▁하위	-10.3617
▁1943	-10.362
▁협회	-10.3624
51	-10.3626
▁사전	-10.3629
▁신설	-10.3633
li	-10.3634
▁참조	-10.3635
▁이사	-10.3636
▁판단되어	-10.3636
▁1967	-10.3641
▁SBS	-10.3645
런	-10.3645
▁전용	-10.3648
▁묘사	-10.3649
▁=	-10.3651
▁지시	-10.3652
▁허위	-10.3654
▁주고	-10.3655
▁병사	-10.3656
▁죄	-10.3657
▁범죄	-10.3659
▁국	-10.366
덴	-10.3661
ad	-10.3662
▁내려	-10.3667
▁전공	-10.3669
▁이승만	-10.3672
라운드	-10.3673
▁아니고	-10.3681
▁창조	-10.3685
82	-10.3686
do	-10.3687
▁분포	-10.3687
▁의심	-10.3692
▁때부터	-10.3695
▁방영된	-10.3698
삭제	-10.3698
▁의무	-10.3701
▁서쪽으로	-10.3703
▁마드리드	-10.3703
▁멈춰	-10.3703
▁보는	-10.3707
▁모임	-10.3708
▁않으면	-10.3716
문학	-10.3718
▁전력	-10.3728
▁방정식	-10.3732
▁그리스도	-10.3733
▁콘텐츠	-10.3733
1941	-10.3735
▁세르비아	-10.3738
▁사용되었다	-10.3739
▁다이	-10.374
공사	-10.3742
▁연대	-10.3745
▁본격적	-10.3746
ᆫ트	-10.3747
분의	-10.3748
▁소유	-10.3754
▁분자	-10.3759
▁완성	-10.376
42	-10.3764
없는	-10.3767
▁쌍	-10.3777
▁북쪽으로	-10.378
▁끝	-10.3782
블	-10.3783
▁메시지	-10.3787
▁게다가	-10.3787
89	-10.3791
▁구글	-10.3792
예술	-10.3793
▁단지	-10.3794
ha	-10.3798
▁무대	-10.3799
▁부부	-10.3804
받아	-10.3809
학자	-10.3812
▁앤	-10.3814
se	-10.3815
▁사장	-10.3816
▁1956	-10.3818
▁무리	-10.3819
▁전사	-10.382
▁확보	-10.3822
▁뜻하는	-10.3828
ᆷ과	-10.3831
▁불과	-10.3839
▁받을	-10.3839
이었고	-10.3841
▁귀족	-10.3843
▁해에	-10.3844
▁인근	-10.3845
▁탑	-10.3846
▁1954	-10.3847
▁말하는	-10.3854
▁석	-10.3855
▁목표로	-10.3859
石	-10.3866
▁나아가	-10.3867
▁마침내	-10.3867
전에	-10.3875
ta	-10.388
▁여러가지	-10.3884
기간	-10.3889
▁하시기	-10.3894
▁사는	-10.3894
▁주연으로	-10.3896
▁300	-10.3898
▁박물관	-10.3901
▁1947	-10.3902
▁염	-10.3904
지로	-10.3904
▁기록한	-10.3904
▁소스	-10.3917
73	-10.3918
엄	-10.3922
▁노예	-10.3927
렌	-10.3929
▁가능	-10.3933
▁활용	-10.3947
▁근대	-10.3947
▁심지어	-10.3949
▁영상	-10.3949
력을	-10.395
▁넘는	-10.3951
차례	-10.3953
▁지방의	-10.3955
▁차지했다	-10.3959
▁지상역	-10.3959
▁복	-10.396
▁마치	-10.3964
낭	-10.3967
베르	-10.3967
▁모스크바	-10.3974
▁등장한다	-10.3976
▁보였다	-10.3977
▁살고	-10.3979
▁논	-10.3981
▁1944	-10.3982
▁공원	-10.3983
▁문장	-10.3984
몰	-10.3993
▁내용에	-10.3999
비치	-10.4001
▁입학	-10.4001
▁설	-10.4006
▁그에	-10.4008
▁농업	-10.4011
▁학문	-10.4015
경제	-10.4017
▁분쟁	-10.4022
가치가	-10.4022
▁통신	-10.4027
▁150	-10.4028
▁봄	-10.4029
45	-10.4029
▁상당한	-10.4031
▁축	-10.4033
ᆽ	-10.4033
▁벨기에	-10.4034
▁응용	-10.4035
▁교사	-10.4036
▁모여	-10.4037
▁쓸	-10.4037
▁대학교에서	-10.4048
스는	-10.405
▁생물	-10.4052
▁솔로	-10.4056
▁전쟁이	-10.4058
▁출장	-10.4059
▁출신으로	-10.4062
▁발매되었다	-10.4062
지원	-10.4062
▁후보로	-10.4071
▁받지	-10.4073
▁나는	-10.4073
▁대표팀	-10.4079
▁아메리카	-10.4082
▁감사하게	-10.4087
▁뜻으로	-10.4089
ma	-10.409
▁역대	-10.4094
ᄇ	-10.4098
▁사라지	-10.4108
▁출처를	-10.411
▁메인	-10.4112
▁박정희	-10.4113
wiki	-10.4114
스카	-10.4115
▁신화	-10.4116
明	-10.4116
▁보수	-10.4116
▁듣고	-10.4119
▁다르게	-10.4123
▁금속	-10.4127
▁보냈다	-10.4132
83	-10.4146
▁복사	-10.4152
▁SK	-10.4157
▁문제로	-10.4164
▁프로그램이다	-10.4169
▁바다	-10.4173
▁재정	-10.4183
▁것이며	-10.4184
▁우려	-10.4185
베이	-10.4187
▁명칭은	-10.4192
▁군주	-10.4197
▁가는	-10.4198
▁주연	-10.4203
▁인민	-10.4203
▁임무	-10.4203
▁무슨	-10.4204
▁위기	-10.4205
▁민법	-10.4205
▁검	-10.4206
▁않았고	-10.4208
▁기본적으로	-10.4209
군과	-10.4212
▁사건을	-10.4212
include	-10.4215
▁신경	-10.4219
▁가사	-10.422
▁일본어	-10.4224
▁관찰	-10.4225
▁상업	-10.4231
▁공공	-10.4234
하겠다	-10.4235
▁기획	-10.4236
몽	-10.4237
분에	-10.4239
▁CD	-10.4242
▁발표하였다	-10.4243
▁전시	-10.4247
ur	-10.425
장으로	-10.4253
▁지도자	-10.4253
▁대통령이	-10.4258
스와	-10.4259
스의	-10.426
▁시작한다	-10.4262
▁성과	-10.4267
ho	-10.4271
▁한자	-10.4278
▁고리	-10.4279
함을	-10.4283
▁co	-10.4285
龍	-10.4286
▁어려운	-10.4287
71	-10.4293
▁정비	-10.4294
▁철수	-10.43
ol	-10.4301
▁오사카	-10.4308
ter	-10.4309
혈	-10.4313
▁탄생	-10.4316
▁깊은	-10.4321
대회	-10.4323
장의	-10.4326
man	-10.4328
▁35	-10.4333
▁직업	-10.4337
▁아마	-10.4337
to	-10.4338
▁못하는	-10.4338
▁아니면	-10.434
▁동료	-10.4347
▁공간이	-10.4358
프로	-10.436
▁엘	-10.436
▁국도	-10.4365
▁주제	-10.4365
▁공산당	-10.4366
▁수술	-10.4371
軍	-10.4372
▁선거에서	-10.4373
▁중심지	-10.4374
▁개최된	-10.4374
▁않게	-10.4378
▁대기	-10.4386
31	-10.4386
▁방법이	-10.4387
▁뭐	-10.4398
▁시호	-10.4401
▁사망하였다	-10.4402
람	-10.4414
▁이용한	-10.4419
▁신학	-10.4419
지방	-10.4423
75	-10.4425
▁필요하다	-10.4433
▁받았고	-10.4436
▁소재	-10.4437
공원	-10.4438
제가	-10.4441
사건	-10.4441
사람의	-10.4442
79	-10.4447
되었을	-10.4457
▁질량	-10.4458
▁마무리	-10.4459
院	-10.4459
▁말았다	-10.4463
▁포위	-10.4465
받았다	-10.4466
sa	-10.4466
▁방문	-10.4469
▁서버	-10.4472
▁위에서	-10.4486
▁부분에	-10.4492
▁돌아가	-10.4497
▁얻어	-10.4508
57	-10.4512
▁강의	-10.4512
:52	-10.4516
▁성경	-10.4517
에게서	-10.4518
▁반발	-10.4519
▁인상	-10.4529
행위	-10.4532
▁70	-10.4532
종류의	-10.4538
▁연합군	-10.4543
地	-10.4547
▁감사	-10.4547
成	-10.4547
▁유학	-10.455
▁불렀다	-10.4554
에만	-10.4555
마르	-10.4569
▁교토	-10.4569
▁양성	-10.457
▁독	-10.4571
02	-10.4577
▁그리	-10.4583
편이다	-10.4589
▁운용	-10.459
▁하나인	-10.459
▁PC	-10.4592
▁있는지	-10.4597
▁환자	-10.46
▁작곡가	-10.4607
▁봅니다	-10.4607
튼	-10.4609
▁지어	-10.4611
▁부모	-10.4613
▁행	-10.4613
싱	-10.4614
▁나온다	-10.4615
▁원칙	-10.462
▁백작	-10.462
▁갈등	-10.4626
▁활동하고	-10.463
▁편지	-10.4632
▁명명	-10.4633
만으로	-10.4634
官	-10.4636
▁대략	-10.4637
▁복무	-10.464
법에	-10.4641
▁지붕	-10.4643
▁논쟁	-10.4646
▁향상	-10.4651
▁주교	-10.4652
▁알려졌다	-10.4654
▁포함한다	-10.4658
▁크고	-10.4659
개국	-10.466
▁불러	-10.466
▁보낸	-10.4664
스크	-10.467
▁상위	-10.4677
▁교류	-10.4679
▁의료	-10.4682
▁사용자들	-10.4683
▁추천	-10.4688
옹	-10.4691
▁1942	-10.4698
칠	-10.47
▁대립	-10.4702
병원	-10.4704
▁벗어나	-10.4714
▁원정	-10.4716
▁행위를	-10.4716
▁정상	-10.472
93	-10.4721
생축생축	-10.4722
行	-10.4725
新	-10.4725
▁고맙습니다	-10.4725
▁저작물	-10.4727
▁열렸다	-10.4727
▁둘째	-10.4727
97	-10.4736
ion	-10.4737
개를	-10.4738
▁태국	-10.4747
지에	-10.4748
▁차트	-10.4749
벨	-10.4751
당했다	-10.4751
▁꼬리	-10.4754
딩	-10.4755
전쟁	-10.4756
▁포함하여	-10.4764
▁콜	-10.4767
▁대부분이	-10.4767
▁한다는	-10.478
▁이중	-10.478
ir	-10.4785
▁않으며	-10.4785
▁육	-10.4786
▁있으면	-10.479
▁1939	-10.4796
▁죽었다	-10.4797
용으로	-10.48
적이고	-10.4802
▁뉴	-10.4805
조직	-10.481
본부	-10.481
름	-10.4815
水	-10.4815
▁홀	-10.4819
▁대사	-10.4819
▁1962	-10.4821
번째로	-10.4821
부분은	-10.4825
▁요한	-10.4825
졌다	-10.4826
꽃	-10.4828
▁일어나	-10.4834
▁대량	-10.4837
▁산하	-10.4839
▁합병	-10.484
플	-10.484
▁살아	-10.4841
▁세워	-10.4843
▁재산	-10.4843
바이	-10.4847
▁미래	-10.4851
▁건조	-10.4852
실험은	-10.4853
da	-10.4854
▁버	-10.4854
▁알리	-10.4857
▁소년	-10.4858
▁신부	-10.486
▁원작	-10.4864
ni	-10.4869
억원	-10.4876
53	-10.4876
:03	-10.4876
▁제시	-10.4878
우리	-10.488
▁you	-10.4888
300	-10.4891
▁시조	-10.4892
▁루	-10.4898
91	-10.4902
家	-10.4905
▁환영합니다	-10.4907
▁영입	-10.4909
▁이룬다	-10.4912
▁개발한	-10.4916
▁1955	-10.492
92	-10.4924
클라	-10.4927
▁마크	-10.4928
▁예측	-10.4929
▁중부	-10.493
▁인종	-10.4931
죄	-10.4933
▁테러	-10.4938
▁•	-10.4939
시킬	-10.4941
▁범주	-10.4942
▁다소	-10.4943
▁해도	-10.4944
▁시작하여	-10.4954
▁이외	-10.4958
▁투입	-10.4971
▁상하이	-10.4972
▁1000	-10.4974
▁겨울	-10.4977
▁공기	-10.4979
▁것이라	-10.4979
▁시작으로	-10.4981
▁요새	-10.4985
▁좋지	-10.4988
또는	-10.4991
光	-10.4997
▁승진	-10.4997
使	-10.4998
▁넓이	-10.4998
▁정확히	-10.4998
▁타이	-10.5
웨이	-10.5002
▁캘리포니아	-10.5002
탕	-10.5007
▁높다	-10.5007
▁공유	-10.5016
▁잇는	-10.5017
▁국가의	-10.5018
스코	-10.5018
화가	-10.502
▁하나는	-10.5021
▁조작	-10.5022
하므로	-10.5027
▁성립	-10.5031
ᆷ에	-10.5033
69	-10.5034
▁1919	-10.5038
▁소녀	-10.5039
▁참여해	-10.5042
▁장면	-10.5045
▁경제적	-10.5047
▁뮤직	-10.5048
▁보물	-10.5054
85	-10.5056
습	-10.5057
▁진주	-10.5058
▁간주	-10.5061
어로	-10.5063
▁후원	-10.507
64	-10.5074
▁극	-10.508
사는	-10.5083
▁수사	-10.5084
one	-10.5088
▁스타일	-10.5089
武	-10.509
郡	-10.509
▁가지는	-10.509
▁미술	-10.5091
시스	-10.5095
▁중요	-10.5098
▁창립	-10.5099
▁씨	-10.51
te	-10.5101
▁있으므로	-10.5104
▁보입니다	-10.5106
▁바이러스	-10.5106
▁소식	-10.5113
▁아무러	-10.5119
협	-10.5122
소리	-10.5127
▁순서	-10.5129
▁잡아	-10.5136
듯	-10.5138
▁유사	-10.5139
▁오류	-10.5143
▁공주	-10.5144
▁역을	-10.5144
▁그들이	-10.5149
왕의	-10.5152
이어	-10.5154
▁만들기	-10.516
▁내의	-10.5161
▁않	-10.5163
▁에어	-10.5163
자들은	-10.5164
▁연결되어	-10.5165
스케	-10.5176
▁듯	-10.5179
게임	-10.5179
▁로버트	-10.5187
▁행동이	-10.5189
▁점점	-10.5189
리가	-10.519
▁탑재	-10.5192
▁상승	-10.5196
처리	-10.5197
▁출처가	-10.5197
▁것인지	-10.5199
▁반대로	-10.5206
▁변환	-10.5208
▁산맥	-10.5214
▁교환	-10.5219
지구	-10.5221
▁단일	-10.5222
▁총의	-10.5224
▁변경되었다	-10.5224
▁체포	-10.5225
▁엔터테인먼트	-10.5227
▁강점기	-10.5233
▁표면	-10.5236
제를	-10.5251
▁훗날	-10.5252
▁성인	-10.5254
멘	-10.5259
▁지닌	-10.5261
▁합성	-10.5268
▁목사	-10.5269
시대	-10.527
▁방법으로	-10.527
세포	-10.5275
▁발견된	-10.5276
日	-10.5278
갑자기	-10.5279
▁헨리	-10.5281
dice	-10.5281
▁1958	-10.5282
▁1959	-10.5283
▁존재하지	-10.5284
▁의혹	-10.529
▁나타난다	-10.5296
▁공정	-10.5299
▁약속	-10.5299
지가	-10.53
구조	-10.5301
▁풍	-10.5301
▁제출	-10.5314
방법	-10.5314
▁계기로	-10.5315
ᄃ	-10.5317
지고	-10.5319
▁맺	-10.5322
▁되	-10.5326
▁사태	-10.5327
득	-10.5327
▁제어	-10.5329
▁중이다	-10.533
▁별도	-10.5335
▁작위	-10.5337
빙	-10.534
▁향해	-10.5346
▁번주	-10.5347
▁환	-10.5348
▁고향	-10.5355
기업	-10.5364
▁서양	-10.5365
▁분야에서	-10.537
書	-10.5372
陽	-10.5372
▁철학	-10.5374
▁탈락	-10.5375
▁세계대전	-10.5376
▁망	-10.5377
메이	-10.5378
▁상징	-10.5378
▁상륙	-10.5378
▁개방	-10.5379
▁것이라는	-10.5379
▁되었으며	-10.5379
능	-10.538
▁입자	-10.5381
에게는	-10.5381
▁이주	-10.5381
시킨다	-10.5384
io	-10.5385
▁이루어졌다	-10.5386
▁마이크로소프트	-10.5387
▁수송	-10.5391
▁건립	-10.5394
▁순위	-10.5396
ᆻ	-10.5405
부인	-10.5411
▁주민	-10.5412
편집	-10.5415
모리	-10.5419
▁안에서	-10.542
▁오신	-10.5422
▁아들로	-10.5427
▁성당	-10.5428
▁영업	-10.5428
차전	-10.543
▁평가를	-10.543
▁법칙	-10.5432
▁한계	-10.5436
▁화물	-10.5445
자인	-10.5447
▁규칙	-10.5454
도시	-10.5455
▁나왔다	-10.5456
▁탈퇴	-10.5457
도서관	-10.5459
▁워싱턴	-10.5461
해도	-10.5464
▁독자	-10.5466
▁지내	-10.5468
世	-10.5469
高	-10.5469
▁충청북도	-10.547
▁타격	-10.5475
▁나누어	-10.5475
▁태도	-10.5477
▁비난	-10.5478
▁원인	-10.5482
▁서식지	-10.5483
대가	-10.5485
▁권력	-10.5489
▁01:1	-10.5493
▁받게	-10.5493
▁구원	-10.5494
긴	-10.5495
이스	-10.5502
지요	-10.5503
죽	-10.5512
▁앞에서	-10.5513
계의	-10.5514
▁콘서트	-10.5515
▁제작에	-10.5521
▁90	-10.5527
▁부활	-10.5532
▁조조	-10.5534
▁올라가	-10.5536
라며	-10.5542
▁이후에는	-10.555
▁후에는	-10.5551
납	-10.5556
ent	-10.5559
사이	-10.5564
本	-10.5566
北	-10.5567
쳐	-10.5569
org	-10.557
큐	-10.5571
▁독특한	-10.5571
▁마련	-10.5575
▁썼다	-10.5579
▁대개	-10.5585
▁재학	-10.5586
▁모습이	-10.5588
부대	-10.5589
▁최소	-10.559
65	-10.5591
▁자체가	-10.5591
▁이후에도	-10.5595
▁전설	-10.5603
▁근처	-10.5605
▁집권	-10.5606
▁위험	-10.5607
▁미리	-10.5618
▁예정이다	-10.5625
▁당초	-10.5625
▁곳으로	-10.5626
주년	-10.5628
▁말로	-10.5628
▁밝	-10.5632
▁엔	-10.5639
▁재배	-10.5642
▁역으로	-10.5645
:54	-10.5647
원을	-10.5648
▁주석	-10.5651
mo	-10.5651
▁건강	-10.5652
▁이르러	-10.5652
▁울산	-10.5654
▁주전	-10.5657
會	-10.5664
▁들면	-10.5664
ᆞ	-10.5665
▁일찍	-10.5666
폐	-10.5671
하이	-10.5674
▁사무실	-10.5675
▁능	-10.5675
▁이른다	-10.5682
▁두었다	-10.5684
▁늘어나	-10.5684
▁보이지	-10.5686
▁청년	-10.5686
▁확립	-10.5688
▁대체로	-10.5692
▁코치	-10.5695
호는	-10.57
▁찾을	-10.5701
ot	-10.5705
식으로	-10.5706
▁호텔	-10.5707
▁작품으로	-10.5708
▁전쟁에서	-10.5709
십시오	-10.571
▁그렇다면	-10.571
am	-10.5711
▁정책에	-10.5713
kr	-10.5722
▁유엔	-10.5723
▁고문	-10.5723
▁정복	-10.5725
▁가진다	-10.5725
ine	-10.5729
▁값	-10.573
▁외국	-10.5731
▁수도원	-10.5731
▁베를린	-10.5732
▁인류	-10.5735
▁구축	-10.5738
계획	-10.5742
▁이전에는	-10.5743
▁이름의	-10.5743
▁정지	-10.5746
▁말레이시아	-10.5746
▁스튜디오	-10.5754
mi	-10.5757
▁이익	-10.5758
▁결	-10.5762
▁빠르게	-10.5764
▁챔피언스리그	-10.5764
▁무료	-10.5767
▁보여준다	-10.5769
▁사립	-10.5769
▁서구	-10.5774
▁활발하	-10.5774
▁통산	-10.5783
▁연고	-10.5789
▁눈에	-10.579
▁암살	-10.5795
君	-10.58
▁변수	-10.5801
▁망명	-10.5811
▁건축물	-10.5811
▁기체	-10.5813
▁갖는	-10.5814
▁미국과	-10.5817
▁지대	-10.5819
중에	-10.5823
▁예산	-10.5825
▁민간	-10.5826
착	-10.5828
기구	-10.5829
▁올해	-10.5831
받은	-10.5832
▁대수	-10.5835
▁임대	-10.5843
▁브랜드	-10.5845
▁채택	-10.5857
▁질병	-10.5858
▁되면서	-10.5861
▁금융	-10.5862
府	-10.5864
趙	-10.5864
▁반갑습니다	-10.5864
only	-10.5864
▁필요하시면	-10.5864
▁죽	-10.5865
▁주위	-10.5872
▁제작한	-10.5872
▁http	-10.5873
▁놓고	-10.5873
61	-10.588
▁남은	-10.5885
성의	-10.5889
63	-10.5893
▁졸업하고	-10.5894
▁선조	-10.59
▁사형	-10.5902
트로	-10.5909
▁플랫폼	-10.5911
▁비용	-10.5916
▁뇌	-10.5918
ᆷ이	-10.5918
▁오해	-10.5922
당시	-10.5923
os	-10.5923
진다	-10.5923
▁고종	-10.5926
▁보안	-10.5926
▁함	-10.5927
과학	-10.5927
▁자리에	-10.593
률	-10.5934
▁세부	-10.5936
▁무렵	-10.5941
▁현역	-10.5943
▁원리	-10.5944
▁역임	-10.595
▁한국인	-10.595
▁판결	-10.5953
▁풀	-10.5954
장군	-10.5954
▁징역	-10.5956
학회	-10.5958
마루	-10.5961
▁09:5	-10.5963
▁공부	-10.5963
學校	-10.5964
▁올림픽에	-10.5965
▁대대	-10.5967
뿐	-10.5972
로스	-10.5973
▁보유하고	-10.5978
▁인권	-10.598
▁파악	-10.5981
▁엄청나	-10.5986
리는	-10.599
려는	-10.5993
▁역할	-10.5997
di	-10.5999
▁보컬	-10.6004
스가	-10.6006
▁현지	-10.6009
▁세계적으로	-10.6011
▁홈페이지	-10.6011
▁수원	-10.6012
킹	-10.6012
58	-10.6012
▁않기	-10.6019
▁유형문화재	-10.602
▁만주	-10.6022
▁상황이	-10.6024
▁루이스	-10.6025
ti	-10.6029
▁이로써	-10.6029
ᅣ	-10.6037
다면	-10.6042
▁대부분은	-10.605
화를	-10.6054
▁노동자	-10.6056
▁00:1	-10.6058
▁진압	-10.6061
▁시작된	-10.6062
興	-10.6066
田	-10.6067
▁분위기	-10.6067
▁얘기	-10.6067
▁배출	-10.607
▁갖추고	-10.6073
시는	-10.6079
▁선정되었다	-10.6082
▁어린이	-10.6083
▁플레이어	-10.6084
▁00:0	-10.6085
위원	-10.6087
▁전역	-10.6087
때문에	-10.6089
주에	-10.6095
만에	-10.6096
▁발견되었다	-10.61
바로	-10.6101
▁혼인	-10.6101
▁불법	-10.6105
▁영향	-10.6106
▁청소년	-10.6114
▁수영	-10.6121
▁챔피언십	-10.6126
▁지은	-10.6126
세에	-10.6127
▁에드워드	-10.6132
마저	-10.6138
▁끝난	-10.6142
▁1910	-10.6145
다시	-10.6149
▁과거에	-10.615
▁저서	-10.6155
▁오래되	-10.6159
선이	-10.6162
▁시절에	-10.6167
▁아시안	-10.6167
神	-10.617
▁전후	-10.6171
▁그때	-10.6173
▁탄소	-10.6176
▁동안에	-10.6181
▁명예	-10.6183
카드	-10.6184
▁전철	-10.6186
▁올라	-10.6188
▁성씨	-10.619
▁차지	-10.6191
▁그것이	-10.6193
▁유전자	-10.62
정치	-10.6201
▁질문해	-10.6202
▁창설	-10.6203
맹	-10.6205
▁비롯하여	-10.6208
▁불리	-10.621
▁제공한다	-10.6211
타카	-10.6217
스터	-10.622
▁올리기	-10.6221
2002	-10.6222
▁말에	-10.6225
▁물체	-10.6228
▁녹	-10.6229
▁명성	-10.623
ᅥ	-10.623
▁원형	-10.6232
▁기지	-10.6236
등의	-10.624
▁스코틀랜드	-10.6246
▁응	-10.6247
81	-10.6247
▁차별	-10.6252
4%	-10.6254
▁준다	-10.6257
▁침략	-10.6257
▁항의	-10.6261
BC	-10.627
▁자살	-10.6273
▁수출	-10.6273
▁왕자	-10.6274
の	-10.6274
忠	-10.6274
月	-10.6274
▁휘	-10.6276
▁운항	-10.6277
▁외국인	-10.6279
▁받기	-10.6279
대상	-10.6281
▁상대식	-10.6282
▁사용하지	-10.6284
▁나타나는	-10.6285
▁맨	-10.6287
▁확정	-10.6287
되었기	-10.6293
▁맡은	-10.6294
▁도서관	-10.6295
▁1921	-10.6295
국제	-10.6298
비트	-10.6303
롭게	-10.6305
▁속한	-10.6309
▁진행되었다	-10.6313
째	-10.6314
▁시티	-10.632
▁제공하는	-10.6322
▁아침	-10.6325
활동	-10.6332
인조	-10.6334
▁올림픽에서	-10.6335
왔다	-10.6337
것이	-10.6338
▁배포	-10.6341
▁고용	-10.6342
혁명	-10.6347
▁가격	-10.6349
주세요	-10.6352
▁1957	-10.6355
움	-10.6357
▁항구	-10.6358
▁하셨던	-10.636
▁검은	-10.636
▁개조	-10.6362
▁매장	-10.6365
▁뮤지컬	-10.6372
▁일종	-10.6373
▁신고	-10.6378
▁창단	-10.6386
동안	-10.6386
▁흡수	-10.6387
시티	-10.6388
▁1951	-10.6389
▁보관	-10.6391
현재	-10.6395
▁지역으로	-10.6397
▁09:4	-10.6399
▁찰스	-10.64
▁1952	-10.6401
▁임금	-10.6407
▁전신	-10.6415
뉴	-10.6418
▁사제	-10.642
▁소속으로	-10.6425
▁연습이	-10.6426
▁멸망	-10.6428
▁시내	-10.6428
▁부진	-10.6429
▁참여했다	-10.6432
▁취급	-10.6435
공화국	-10.644
▁접촉	-10.6444
▁살해	-10.6446
▁공연을	-10.6449
자료	-10.6453
하였던	-10.6454
▁불상	-10.6455
윈	-10.6458
▁내지	-10.6459
▁쿠바	-10.646
▁고도	-10.6465
▁00:2	-10.6474
pe	-10.6476
▁다름	-10.6481
▁주식	-10.6484
部	-10.6486
洞	-10.6486
▁않지만	-10.6487
▁분이	-10.6488
ex	-10.6488
▁이루고	-10.6497
▁거대	-10.6497
▁동양	-10.6497
▁400	-10.6502
▁건국	-10.6503
▁관련이	-10.6513
▁일정한	-10.6518
주는	-10.6526
▁레코드	-10.6528
▁국방부	-10.6532
44	-10.6538
시오	-10.6542
써	-10.6543
학생	-10.6545
▁목소리	-10.6547
▁발매된	-10.6548
▁민주	-10.6553
▁거듭	-10.6553
▁라인	-10.6553
▁여부	-10.6562
▁저도	-10.6563
부가	-10.6565
▁표제어	-10.6571
▁연출	-10.6577
▁채용	-10.6581
▁쪽	-10.6581
▁데이비드	-10.6585
화된	-10.6586
▁프로이센	-10.6593
▁나들목	-10.6593
▁KBO	-10.6594
▁전동차	-10.6594
▁실현	-10.6597
▁축제	-10.6598
▁받았으며	-10.6599
▁대회에	-10.66
▁나타낸다	-10.6602
▁화산	-10.6602
▁역은	-10.6602
▁삽입	-10.661
원이	-10.661
▁방법은	-10.6611
▁공무원	-10.6613
▁알파	-10.6618
▁작품은	-10.6624
▁흐름	-10.6625
▁최다	-10.6635
민족	-10.6635
▁내가	-10.6636
텔	-10.6636
▁부담	-10.6639
▁진입	-10.664
▁국제공항	-10.664
▁도모	-10.6643
행정	-10.6644
▁프랑스어	-10.6647
▁성능	-10.6648
▁보니	-10.665
▁밝혀	-10.6651
▁결승전	-10.6657
▁동명	-10.6661
▁간행	-10.6663
▁신뢰	-10.6665
▁측면	-10.6667
▁벌어진	-10.6671
ul	-10.6675
韓	-10.6676
▁그러므로	-10.6682
▁일으켜	-10.669
▁드러나	-10.6692
▁해제	-10.6693
▁근처에	-10.6694
▁출범	-10.6696
海	-10.67
디아	-10.6701
經	-10.6702
張	-10.6702
林	-10.6702
▁트레이드	-10.6702
▁거두었다	-10.6703
ge	-10.6704
▁나뉜다	-10.6705
▁당나라	-10.6708
▁타율	-10.671
▁배경	-10.6719
▁휴	-10.6721
▁자세한	-10.6722
▁사건에	-10.6723
십	-10.6726
▁의장	-10.6727
52	-10.6728
▁ᄉ	-10.6732
▁포함하고	-10.6732
만명	-10.6736
▁대비	-10.6736
식의	-10.6742
력이	-10.6742
▁피아노	-10.6742
루스	-10.6743
▁임기	-10.6745
▁발생하는	-10.6747
▁독일어	-10.675
▁로스앤젤레스	-10.6752
세이	-10.6753
시키기	-10.6757
▁참가했다	-10.6758
▁운영하고	-10.676
대한	-10.6762
▁신청되어	-10.6765
틴	-10.6766
▁영지	-10.6767
므로	-10.6773
인이	-10.6776
▁맞게	-10.6777
▁경로	-10.6778
사에	-10.6782
이치	-10.6786
▁원년	-10.6787
신문	-10.6787
▁1953	-10.6787
▁도중	-10.6792
▁총선에서	-10.6792
▁보조	-10.6792
▁방출	-10.6795
〉,	-10.6796
숭	-10.6801
▁찬성	-10.6801
▁활동했다	-10.6803
▁이상이	-10.6808
▁주지	-10.681
漢	-10.6811
▁개신교	-10.6812
白	-10.6812
▁업로드	-10.6812
▁싶습니다	-10.6812
▁날짜	-10.6812
▁악	-10.6814
▁연락	-10.6816
500	-10.6823
▁사망한	-10.6823
▁본사	-10.6824
▁설치류	-10.6824
_5	-10.6825
▁1914	-10.6825
▁오직	-10.683
ER	-10.6832
sh	-10.6833
▁폭력	-10.6835
▁신성	-10.6836
▁골든	-10.6836
치는	-10.6841
폴	-10.6842
▁절반	-10.6845
▁올렸다	-10.6845
▁크다	-10.6846
▁정착	-10.6849
▁유행	-10.685
▁리더	-10.6851
ke	-10.6852
1938	-10.6854
▁계통	-10.6854
▁되기	-10.6856
▁크로아티아	-10.6863
딘	-10.6869
▁문단	-10.6871
미르	-10.6872
고쿠	-10.6876
선수	-10.6876
▁1931	-10.6878
2010	-10.6881
▁사용했다	-10.6882
▁혼합	-10.6883
▁주둔	-10.6886
닝	-10.6887
▁단독	-10.6888
2000	-10.6894
▁운전	-10.6897
비아	-10.6899
▁스토리	-10.6901
팅	-10.6903
▁흰색	-10.6906
미터	-10.6912
▁1918	-10.6913
시로	-10.6913
▁만다	-10.6913
▁신인	-10.692
門	-10.6923
里	-10.6923
▁타이완	-10.6923
▁히틀러	-10.6923
▁정원	-10.6923
▁시카고	-10.6925
콘	-10.6926
▁개입	-10.6926
▁의지	-10.6928
성은	-10.6931
▁다카	-10.6932
▁나뉘어	-10.6933
▁복원	-10.6934
▁명칭이	-10.6935
▁가까이	-10.6936
▁사과	-10.6936
▁누구나	-10.6938
▁1936	-10.694
▁전통적인	-10.6944
▁문신	-10.6944
과정	-10.6949
▁등재	-10.6951
▁장수	-10.6952
▁서울시	-10.6955
son	-10.6958
▁만한	-10.6966
전자	-10.6971
▁말기	-10.6974
관을	-10.6975
▁로고	-10.6976
▁독일군	-10.6977
▁남쪽으로	-10.6979
▁DNA	-10.6984
▁오페라	-10.6984
별로	-10.6987
▁블랙	-10.6987
젠	-10.699
▁자세	-10.6997
▁귀국	-10.6998
▁종목	-10.6999
객	-10.7
▁칠	-10.7002
지마	-10.7006
정도	-10.7008
be	-10.701
▁벽	-10.7012
▁계기	-10.7014
▁개설	-10.7014
▁로즈	-10.7016
▁상당ᄒ	-10.7017
▁뉴질랜드	-10.7017
▁전파	-10.702
▁많아	-10.7021
머리	-10.7021
▁제외	-10.7022
▁후지	-10.7035
▁남아프리카	-10.7036
▁바뀌었다	-10.7038
호를	-10.7039
▁좋겠습니다	-10.7039
▁유일하게	-10.704
레스	-10.7041
▁고정	-10.7042
▁김일성	-10.7044
▁마틴	-10.7047
▁건너	-10.7048
▁많았다	-10.7049
휘	-10.705
박물관	-10.7052
▁얻을	-10.7053
하시	-10.7053
으로써	-10.7056
▁절차	-10.7058
조차	-10.7059
▁없기	-10.7062
▁들고	-10.7064
▁베스트	-10.7067
▁관심이	-10.7067
▁딴	-10.7068
▁파크	-10.7074
▁터널	-10.7076
▁되자	-10.7076
2014	-10.7079
부로	-10.7089
▁개편	-10.7089
실점	-10.7095
웅	-10.7098
▁동일	-10.7102
▁잡	-10.7108
_3	-10.7108
▁하늘	-10.7108
▁아동	-10.711
▁정식으로	-10.7113
▁생각을	-10.7115
▁생긴	-10.7117
▁글로벌	-10.7119
항공	-10.712
▁불만	-10.7121
▁맞아	-10.7122
▁원수	-10.7124
▁돌아와	-10.7124
▁공장	-10.7124
▁칠레	-10.7125
ᆷ으로써	-10.7126
킨	-10.7129
하에	-10.713
▁당대	-10.7131
오카	-10.7134
되었습니다	-10.7134
▁식으로	-10.7135
▁유형	-10.7135
▁기둥	-10.7138
올	-10.7138
2015	-10.714
▁장애	-10.7141
▁포함된	-10.7143
▁곤충	-10.7144
圖	-10.7149
▁커뮤니티	-10.7149
▁당신	-10.7152
집단	-10.7152
▁공헌	-10.7153
▁풍부하	-10.7154
ie	-10.7155
▁양산	-10.7156
▁출연하였고	-10.7158
▁글자	-10.716
▁얻은	-10.7162
▁방송국	-10.7163
▁왜곡	-10.7163
슬	-10.7164
▁등장인물	-10.7167
▁혼란	-10.7168
▁구속	-10.7174
▁손자	-10.7176
min	-10.7177
인들이	-10.7178
▁재단	-10.7185
하시는	-10.7188
▁HD	-10.7192
▁활성화	-10.7194
국의	-10.7196
▁해산	-10.7203
ᄀ	-10.7206
▁발굴	-10.7207
롱	-10.7208
렉	-10.7209
▁석유	-10.7209
▁쓰기	-10.7212
▁트랙	-10.7217
▁아름다운	-10.7222
▁화면	-10.7223
▁자금	-10.7225
▁옥	-10.7225
연구소	-10.7228
이라면	-10.7228
▁처벌	-10.7228
량이	-10.7231
▁무게	-10.7231
칼	-10.7234
▁장르	-10.7238
네스	-10.7238
▁태조	-10.7238
ᆮ	-10.7239
▁인쇄	-10.7246
주로	-10.7248
▁수집	-10.7251
▁분명	-10.7252
부의	-10.7254
▁말은	-10.726
鄭	-10.7263
生	-10.7264
▁WWE	-10.7264
이후	-10.7264
트라	-10.7267
▁만들어졌다	-10.7271
▁01:0	-10.7274
▁연간	-10.7277
▁장난성	-10.7283
까	-10.7284
▁함대	-10.7288
▁분해	-10.7294
▁고속	-10.7297
▁등급	-10.73
▁확인할	-10.7306
개로	-10.7311
▁관료	-10.7313
▁회전	-10.7314
어서	-10.7314
▁유대인	-10.7316
▁못한다	-10.7318
▁변호사	-10.7319
▁거래	-10.7322
▁영문	-10.7325
▁소화	-10.7326
소설	-10.7326
이었지만	-10.7328
▁파견	-10.7329
im	-10.733
▁협정	-10.733
▁가상	-10.7333
라스	-10.7334
▁바꿔	-10.7339
▁게임을	-10.7342
▁깨	-10.7345
1908	-10.7351
▁감독으로	-10.7354
침	-10.7355
▁수단	-10.7356
▁양자	-10.7357
▁조합	-10.736
▁문명	-10.7361
바르	-10.7364
▁주변에	-10.7368
▁대통령의	-10.7368
▁곡을	-10.7375
原	-10.7379
om	-10.7379
相	-10.738
▁상대적으로	-10.7393
▁일어났다	-10.7393
▁중대	-10.7394
▁아카데미	-10.7396
었고	-10.7397
▁오늘	-10.7398
▁전체적으로	-10.7398
▁가리	-10.74
축구	-10.7401
▁말하고	-10.7407
▁관련해서	-10.7407
▁1933	-10.7409
뉴스	-10.741
곳	-10.741
극장	-10.7413
▁전직	-10.7415
놓	-10.7417
▁감독이	-10.7422
▁실력	-10.7424
▁역에서	-10.7426
▁막부	-10.7427
치고	-10.7431
요시	-10.7434
만한	-10.7438
▁싸움	-10.744
▁선고	-10.7444
▁일어나는	-10.7448
ᅵ다	-10.7449
보호	-10.745
▁카페	-10.745
▁1927	-10.7454
▁추기경	-10.7462
▁이유를	-10.7464
▁없게	-10.7467
▁지나치	-10.7468
▁대법원	-10.7473
▁무덤	-10.7473
세로	-10.7479
▁마르	-10.7483
역사	-10.7483
▁시사	-10.7484
▁터미널	-10.7487
부는	-10.7487
▁버튼	-10.7488
솔	-10.7488
▁영국에서	-10.7489
역으로	-10.7492
▁가스	-10.7496
和	-10.7498
#	-10.7498
朴	-10.7498
▁리처드	-10.7498
▁여겨진다	-10.7498
▁청구	-10.75
▁상대방	-10.7505
▁코어	-10.7517
▁출시되었다	-10.7517
▁대다수	-10.7519
기와	-10.7522
▁철거	-10.7523
▁포기	-10.7524
▁사용된	-10.7526
▁연결하는	-10.7528
▁없어서	-10.7529
▁아니라고	-10.7531
▁극장	-10.7532
▁비율	-10.7532
▁교육을	-10.7536
드라	-10.7536
▁포함된다	-10.7537
▁체코	-10.7538
▁참가한	-10.754
▁효	-10.7544
▁도전	-10.7547
▁마사	-10.7548
▁연호	-10.7552
▁맞춰	-10.7552
▁제주도	-10.7559
▁근거로	-10.7559
▁베이	-10.7561
▁갔다	-10.7562
▁이명박	-10.7563
▁생각이	-10.7563
로도	-10.7564
▁메모리	-10.7564
▁전반	-10.7566
▁1929	-10.7566
드리	-10.7568
▁고통	-10.757
▁이름이다	-10.7571
얼	-10.7571
▁직위	-10.7572
▁미국인	-10.7575
▁속해	-10.7576
▁학위를	-10.7576
▁45	-10.7577
▁화성	-10.7583
▁노벨	-10.7584
▁사무	-10.7584
1925	-10.7585
▁농구	-10.7589
▁유한	-10.7597
é	-10.7598
▁메이지	-10.7599
▁처형	-10.7601
부문	-10.7602
▁글이	-10.7603
▁사단	-10.7605
▁경향	-10.7607
ng	-10.7609
▁수소	-10.7611
ᄌ	-10.7613
기사	-10.7613
知	-10.7617
五	-10.7617
劉	-10.7617
島	-10.7617
▁보스턴	-10.7618
편성	-10.7621
▁동일본	-10.7622
ᆻ음에도	-10.7622
▁액체	-10.7623
▁넘어	-10.7626
▁예전에	-10.7626
▁국기	-10.7627
▁원인이	-10.7631
▁합격	-10.7633
▁다음날	-10.7635
▁00:4	-10.7635
▁1900	-10.7639
▁기관차	-10.764
▁자극	-10.7641
이지	-10.7645
▁롯데	-10.7648
▁보이고	-10.7652
▁역사가	-10.7654
▁왕위	-10.7656
펜	-10.7657
▁진실	-10.7662
▁00:5	-10.7663
▁수상하였다	-10.7664
▁장착	-10.7664
상과	-10.7665
회를	-10.7665
▁선로	-10.7666
▁형식으로	-10.7669
▁저녁	-10.7672
▁통계	-10.7674
▁달아	-10.7674
▁정체	-10.7675
▁중화	-10.7677
2011	-10.7679
▁자유롭	-10.768
▁직무	-10.768
1924	-10.7683
▁니시	-10.7683
!!	-10.7684
철도	-10.7685
▁도달	-10.7685
단계	-10.7685
1904	-10.7686
▁설치된	-10.7687
사랑	-10.7687
▁출력	-10.7688
ton	-10.7693
마치	-10.7693
▁맞서	-10.7695
bi	-10.7695
▁중인	-10.7696
▁알아	-10.7697
어졌다	-10.7702
▁관련하여	-10.7702
▁중국어	-10.7702
▁중의	-10.7705
▁모습	-10.7708
▁연료	-10.7708
▁자격	-10.7713
▁그래픽	-10.7717
▁대해서도	-10.7718
트리	-10.7731
▁주관	-10.7734
ᆻ다고	-10.7734
永	-10.7736
之	-10.7737
見	-10.7737
堂	-10.7737
▁홋카이도	-10.7738
▁걸친	-10.7738
▁사냥	-10.7739
연맹	-10.7741
델	-10.7743
▁이르렀다	-10.7744
위키	-10.7755
▁요청하시	-10.7756
▁선박	-10.7757
▁복수	-10.7766
▁날개	-10.7766
▁하자	-10.7767
됨	-10.7767
▁칭호	-10.7768
등이	-10.7768
▁적어도	-10.777
▁그래	-10.777
▁기재	-10.7773
식물	-10.7776
▁트리	-10.7777
▁주장하는	-10.7778
▁살인	-10.7778
▁웹사이트	-10.778
층에	-10.7781
▁레드	-10.7782
▁도착	-10.7783
▁이곳에	-10.7785
강하게	-10.7785
ᅮ	-10.7785
왕후	-10.7786
▁끝내	-10.7794
▁바라	-10.7796
▁붉은	-10.7796
기록	-10.7796
▁상주	-10.7799
▁올리는	-10.7802
▁인물로	-10.7804
▁권력을	-10.781
것을	-10.7813
▁1935	-10.7814
▁이로	-10.7815
▁나폴레옹	-10.7815
ac	-10.7816
▁했지만	-10.7816
▁구현	-10.7818
▁했으나	-10.7819
▁칭	-10.7822
▁사퇴	-10.7824
▁유적	-10.7824
▁잠	-10.7828
▁권위	-10.7829
▁문화재	-10.783
정신	-10.7831
부장	-10.7832
스러운	-10.7834
▁빌보드	-10.7837
카이	-10.7841
세력	-10.7841
되는데	-10.7846
뢰	-10.785
▁통상	-10.7851
▁재개	-10.7852
▁자녀	-10.7852
聖	-10.7859
▁시민들	-10.7859
▁뛰고	-10.7859
▁물고기	-10.786
▁기상청	-10.786
▁아울러	-10.7862
▁게이	-10.7863
art	-10.7864
▁하우스	-10.7865
▁로켓	-10.7865
▁대한제국	-10.7867
▁좋을	-10.7868
▁지니고	-10.7871
부를	-10.7874
▁요시	-10.7877
ᆻ으니	-10.7881
▁파키스탄	-10.7896
ᆼ이	-10.7896
the	-10.7902
▁받는다	-10.7902
▁여섯	-10.7903
▁본부	-10.7904
▁있었기	-10.7905
▁위상	-10.7907
St	-10.7915
3%	-10.7916
▁임진왜란	-10.7916
ᆫ드	-10.7921
▁한반도	-10.7923
▁금메달을	-10.7929
▁못하였다	-10.7929
▁블루	-10.7932
▁음	-10.7932
사상	-10.7941
▁생	-10.7943
▁지나지	-10.7943
▁사람들에게	-10.7944
▁토론토	-10.7944
▁누	-10.7944
▁부정적	-10.7945
▁강력	-10.7946
▁1932	-10.7949
니시	-10.7949
▁왕이	-10.7949
▁우리나라	-10.7952
▁농	-10.7956
▁출발	-10.7957
▁미니	-10.7959
▁같은데	-10.796
▁모리	-10.7961
됨에	-10.7962
▁꿈	-10.7963
▁나이로	-10.7965
단의	-10.7966
▁관직	-10.7967
▁제재	-10.797
▁주니어	-10.7973
▁이용할	-10.7976
▁순간	-10.7977
▁총장	-10.798
▁소비	-10.7981
江	-10.7982
▁깊이	-10.7983
▁알고리즘	-10.7983
누스	-10.7984
이라도	-10.7985
▁멀리	-10.7985
▁콜롬비아	-10.7985
▁불렸다	-10.7986
▁그리하여	-10.7986
▁주인	-10.7988
▁확실	-10.7992
▁교리	-10.7996
▁서방	-10.8001
▁원시	-10.8004
▁올린	-10.8005
▁코미디	-10.8005
kim	-10.8008
▁호수	-10.8009
▁천주교	-10.8011
▁00:3	-10.8015
프리	-10.8022
토리	-10.8023
▁인물이	-10.8028
▁옷	-10.803
ru	-10.803
ED	-10.803
▁페르시아	-10.8031
▁포트	-10.8033
▁사유	-10.8035
▁애플	-10.8042
달하는	-10.8046
▁적어	-10.8047
▁맞이	-10.8048
▁패션	-10.8051
리어	-10.8053
1934	-10.8061
였지만	-10.8066
▁09:3	-10.8068
▁사자	-10.8069
▁의학	-10.8076
▁결론	-10.8076
▁사임	-10.8077
▁보유	-10.8078
▁분열	-10.8078
「	-10.8078
▁아니며	-10.8085
▁불가리아	-10.8085
대부	-10.8086
OS	-10.8087
▁이루는	-10.8088
▁비트	-10.8089
단을	-10.8091
선은	-10.8093
동맹	-10.8094
원으로	-10.8096
▁악기	-10.81
하니	-10.8102
▁이벤트	-10.8108
▁어떨까요	-10.8108
▁할아버지	-10.8109
▁희망	-10.8109
▁이끌었다	-10.811
▁맛	-10.8112
▁심판	-10.8113
2012	-10.8113
▁덜	-10.8115
▁녹색	-10.8116
학원	-10.8116
랜드	-10.8117
all	-10.8118
▁참고로	-10.8118
인들은	-10.8124
▁역임하였다	-10.8126
뇌	-10.813
▁국적	-10.8132
▁패턴	-10.8133
▁증언	-10.8137
▁것들	-10.8139
▁되며	-10.8139
▁있어야	-10.8141
▁편집에	-10.8145
▁동원	-10.8145
환경	-10.8148
▁찍	-10.8149
▁번째로	-10.815
▁삼아	-10.8152
여객	-10.8153
▁김영	-10.8154
▁정부에	-10.8155
전을	-10.8155
▁폭탄	-10.8155
국민	-10.8158
▁출전하여	-10.8163
▁선전	-10.8172
▁동작	-10.8176
▁명나라	-10.8178
▁띠	-10.818
▁이탈	-10.8184
▁충분하	-10.8189
▁연설	-10.8196
핑	-10.8198
▁액션	-10.82
:02	-10.8204
쌍	-10.8206
▁고속도로	-10.8206
▁낙	-10.8206
▁기온	-10.8207
▁추가로	-10.8207
▁유효	-10.8211
▁님이	-10.8214
▁피터	-10.8221
▁09:1	-10.8222
四	-10.8234
無	-10.8234
河	-10.8234
▁해양	-10.8235
쯤	-10.8243
▁서울대학교	-10.8243
▁사용하였다	-10.8243
▁없	-10.8247
켄	-10.8251
▁들어갔다	-10.8252
일간	-10.8254
▁작성하신	-10.8255
▁상실	-10.8256
▁걸려	-10.8259
▁위원장	-10.8259
▁사원	-10.826
▁감염	-10.8261
▁어렵다	-10.8262
▁황금	-10.8262
▁성향	-10.8264
▁신체	-10.8265
▁유럽의	-10.8265
▁공식적인	-10.8266
▁당장	-10.8266
비스	-10.8268
▁초에	-10.8268
▁검토	-10.8268
넷	-10.827
lee	-10.8272
지금	-10.8274
▁분할	-10.8274
리오	-10.8274
▁왕실	-10.8275
오스	-10.8276
bo	-10.8277
▁별로	-10.828
▁Re	-10.8284
부에	-10.8287
에서만	-10.8295
작업	-10.8296
▁그리스어	-10.8302
권의	-10.8302
▁항공기	-10.8308
_7	-10.8308
▁챔피언	-10.8309
▁아래에	-10.8309
찌	-10.831
법은	-10.8311
▁김정	-10.8313
▁생명	-10.8318
▁폭	-10.8321
겠습니다	-10.8322
▁암컷	-10.8325
▁중요성	-10.833
▁섬의	-10.8332
▁매주	-10.8333
보이	-10.8338
▁되돌리기	-10.8351
시아	-10.8354
둥	-10.8356
▁원주민	-10.8356
▁의미하는	-10.8357
▁가능성	-10.8359
▁핫	-10.836
분이	-10.8362
尹	-10.8362
不	-10.8362
論	-10.8362
孝	-10.8362
所	-10.8363
▁습격	-10.8363
▁시드니	-10.8364
▁토벌	-10.8365
한다면	-10.8367
▁해상	-10.8369
▁열었다	-10.8371
▁재료	-10.8373
테르	-10.8374
뒤	-10.8383
▁중재	-10.8383
▁개인의	-10.8384
▁이라크	-10.8386
▁편찬	-10.8387
▁복잡한	-10.8387
▁김대중	-10.8388
스티	-10.8389
▁방해	-10.8392
▁만족	-10.8396
▁박근혜	-10.8398
▁연구에	-10.84
▁저지	-10.8404
2006	-10.841
▁종교적	-10.8413
▁영웅	-10.8413
▁단편	-10.8414
▁성분	-10.8414
▁유럽에서	-10.8414
▁로봇	-10.8415
▁기능이	-10.8415
▁무기한	-10.8415
▁어깨	-10.8416
▁출연했다	-10.8417
68	-10.8418
▁대구광역시	-10.8424
▁매체	-10.8424
대신	-10.8427
계약	-10.8427
캐	-10.8429
▁연안	-10.8434
▁프로듀서	-10.8438
▁진보	-10.8442
▁왕비	-10.8444
▁자치	-10.8446
하라는	-10.8447
▁관점	-10.8448
▁01:3	-10.8449
▁대표하	-10.8452
제국	-10.8452
▁싱가포르	-10.8453
▁창당	-10.8453
▁전면	-10.8455
▁일본인	-10.8457
장에서	-10.8459
▁일어난다	-10.8462
▁탈	-10.8464
▁배경으로	-10.8468
▁주재	-10.847
▁빅토리아	-10.8471
▁승객	-10.8472
▁In	-10.8475
va	-10.8477
▁진학	-10.8477
▁내용으로	-10.848
▁충격	-10.8482
▁좌	-10.8486
▁청주	-10.8491
반민족행위	-10.8492
▁동영상	-10.8493
▁테스트	-10.8495
▁37	-10.8498
닌	-10.85
오리	-10.85
시스템	-10.85
▁엄격하	-10.8501
물을	-10.8501
▁1937	-10.8503
▁법원	-10.8503
▁감독을	-10.8503
▁남겼다	-10.8503
분교	-10.8507
▁주민들	-10.8508
ss	-10.8509
▁경력	-10.8511
▁FA	-10.8515
▁08:5	-10.8516
▁Love	-10.8516
▁걸어	-10.8521
조에	-10.8521
삭	-10.8522
▁맞는	-10.8522
▁항해	-10.8524
▁대공	-10.8526
▁맺고	-10.8528
▁조지아	-10.8529
▁이외에도	-10.8531
▁36	-10.8533
▁수리	-10.8533
▁화석	-10.8534
▁종전	-10.8534
▁참석	-10.8538
▁했기	-10.8539
강에	-10.8546
것은	-10.8553
▁않아서	-10.8554
▁제목으로	-10.8554
▁모드	-10.8554
▁방면	-10.8555
년만에	-10.8556
▁자매	-10.8556
마이	-10.8559
방식	-10.8563
ᆻ는지	-10.8567
▁가슴	-10.857
▁저자	-10.8572
▁파동	-10.8572
▁기법	-10.8573
였으나	-10.8582
겨	-10.8589
▁답	-10.8589
켓	-10.8589
▁프리미어리그	-10.859
▁검찰	-10.8595
브리	-10.8597
기능	-10.8597
▁1923	-10.8597
▁중에는	-10.8602
▁캐	-10.8603
명에	-10.8607
▁가로	-10.8612
▁말해	-10.8612
ment	-10.8618
ant	-10.8621
慶	-10.8623
縣	-10.8624
心	-10.8624
▁블로그	-10.8624
▁주장이	-10.8625
▁보병	-10.863
▁내렸다	-10.8634
▁메리	-10.8636
▁면적	-10.8637
▁이기	-10.864
▁운영하는	-10.8644
▁알려	-10.8647
▁손실	-10.8654
▁진행된	-10.8655
Re	-10.8658
理	-10.8659
▁지급	-10.8661
ang	-10.8664
프랑스	-10.8666
상으로	-10.8668
▁중반	-10.867
▁감시	-10.867
ᅦ게	-10.8672
前	-10.8674
▁부르기	-10.8674
▁출간	-10.8682
▁가톨릭교회	-10.8685
▁빠져	-10.8687
▁커버	-10.8689
▁이혼	-10.8697
▁수컷	-10.8697
▁서서	-10.8699
▁자원	-10.87
▁신분	-10.8701
케이	-10.8706
▁《》	-10.8707
▁전선	-10.8708
▁화폐	-10.8711
달러	-10.8712
×	-10.8719
▁유래	-10.8721
▁담	-10.8722
▁명칭으로	-10.8726
▁테	-10.8727
pi	-10.873
구요	-10.8731
빛	-10.8734
▁작사	-10.8734
사토	-10.8738
▁있었다고	-10.8739
잡	-10.874
서는	-10.874
▁아랍	-10.8742
▁종이	-10.8744
▁벡터	-10.8746
▁ᄀ	-10.8747
▁대만	-10.8749
ᆯ루	-10.875
▁물러나	-10.8755
▁도중에	-10.8756
政	-10.8757
▁도쿄도	-10.8758
탁	-10.8758
▁모험	-10.8758
▁바이에른	-10.8758
▁카메라	-10.8759
▁밝혀졌다	-10.8759
▁가설	-10.8761
짝	-10.8763
▁부친	-10.8764
▁이용하시	-10.8765
▁특별히	-10.8766
▁유산	-10.8767
7%	-10.877
▁1922	-10.877
▁완전	-10.8771
▁내전	-10.8774
바라	-10.8775
여자	-10.8777
▁예전	-10.8778
▁주목해	-10.8779
▁닥터	-10.8783
연합	-10.8784
▁피부	-10.8784
▁사령관	-10.8789
▁동메달	-10.8789
시기	-10.8792
ᄋ	-10.8793
▁차트에서	-10.8793
노스	-10.8794
▁싶어	-10.8795
▁오르	-10.8798
▁설립되었다	-10.8798
▁괴	-10.8799
차로	-10.8802
고속도로	-10.8806
▁않는다는	-10.8806
께서	-10.8807
▁결과가	-10.8811
▁약칭	-10.8812
▁회색	-10.8812
공간	-10.8813
▁두어	-10.8814
▁악화	-10.8816
▁영국과	-10.8818
pa	-10.8818
▁되돌려지ᄀ	-10.8826
▁취	-10.8827
▁39	-10.8827
▁침입	-10.8828
▁정수	-10.883
1%	-10.8831
▁신장	-10.8832
▁진정	-10.8833
▁양의	-10.8833
둔	-10.8835
▁명단에	-10.8836
▁점수	-10.8837
▁Me	-10.8838
▁낸	-10.884
구의	-10.8848
▁현장	-10.8848
▁자국	-10.8852
타르	-10.8854
ki	-10.8858
▁노래를	-10.8861
No	-10.8863
▁누가	-10.8863
▁감각	-10.8865
쪽	-10.8873
▁삭제된	-10.8876
▁하와이	-10.8877
▁천체	-10.8881
▁그렇지	-10.8885
▁참가하여	-10.8886
완전한	-10.8887
▁21:0	-10.8888
▁최근에	-10.8889
▁상세	-10.8891
太	-10.8891
善	-10.8892
▁조선총독부	-10.8892
小	-10.8892
▁맨체스터	-10.8893
▁병원	-10.8893
▁훌륭하	-10.8894
▁열매	-10.8897
▁아들인	-10.8897
Kim	-10.8899
▁느낌	-10.89
▁비슷하다	-10.8901
></	-10.8904
▁지형	-10.8908
▁차지하고	-10.8909
▁소련군	-10.8909
▁거대하	-10.8911
▁쌀	-10.8915
▁재건	-10.8916
산성	-10.8916
까지는	-10.8916
▁혼	-10.8919
▁흑인	-10.8919
ca	-10.892
▁상태가	-10.892
열차	-10.8927
▁인생	-10.8929
사령부	-10.8932
400	-10.8935
▁바위	-10.8935
▁스카이	-10.8937
▁최우수	-10.8938
▁초반	-10.8942
▁동경	-10.8942
▁학습	-10.8943
▁세종	-10.8944
▁후에도	-10.8948
▁보장	-10.895
▁행렬	-10.895
현재의	-10.8955
▁경기가	-10.8963
▁초점	-10.8963
공주	-10.8974
석을	-10.8975
▁행복	-10.8978
괴	-10.8978
ᆻ었다	-10.8981
▁학술	-10.8983
au	-10.8984
▁문헌	-10.8984
▁소송	-10.8985
▁조문	-10.8985
▁기기	-10.8987
교회의	-10.8987
▁못하게	-10.8988
▁가량	-10.8988
▁회피	-10.8988
▁참여한	-10.8991
벤	-10.8993
▁법적	-10.8994
▁후인	-10.8995
번호	-10.8996
▁짐	-10.8997
▁합류	-10.8998
▁부하	-10.8999
▁접속	-10.8999
▁업체	-10.9001
▁계곡	-10.9001
▁보고서	-10.9002
▁본다	-10.9003
▁예로	-10.9005
▁국군	-10.9011
▁완공	-10.9016
▁양쪽	-10.9021
▁심장	-10.9023
▁울	-10.9026
信	-10.9029
▁몸무게	-10.9029
面	-10.9029
定	-10.9029
▁목숨	-10.903
▁봉해졌다	-10.903
▁탄압	-10.903
▁그럼에도	-10.9031
▁권고하	-10.9032
클	-10.9032
▁윈도	-10.9033
▁진격	-10.9036
ᅱ	-10.9036
▁만든다	-10.9037
▁나타났다	-10.9042
▁폐지되었다	-10.9047
하였다고	-10.9052
▁강도	-10.9053
▁덕	-10.9054
▁화재	-10.9056
조는	-10.9056
▁OS	-10.9058
▁You	-10.906
▁고쳐	-10.9062
마쓰	-10.9062
▁1906	-10.9063
▁역임했	-10.9067
▁긴급	-10.9067
▁건의	-10.9068
라인	-10.9072
▁반달	-10.9072
▁태종	-10.9077
▁17:0	-10.9078
▁입장에서	-10.9078
▁마르크스	-10.9082
▁아이돌	-10.9082
▁강릉	-10.9088
▁독자적	-10.909
▁1905	-10.909
▁되는데	-10.9091
▁화이트	-10.9093
▁흑	-10.9098
▁구성된다	-10.91
▁브리	-10.9101
ell	-10.9102
▁뒤로	-10.9105
부사	-10.9109
▁바꾸어	-10.9112
2%	-10.9113
하루	-10.9117
▁말할	-10.9118
▁화려하	-10.9119
▁특징이다	-10.9126
▁우수	-10.9128
▁수요	-10.9132
▁문법	-10.914
▁전문가	-10.9141
▁무시	-10.9142
▁다큐멘터리	-10.9143
▁노무현	-10.9143
▁순환	-10.9146
▁탈출	-10.9148
▁전한	-10.915
▁오토	-10.915
원의	-10.9151
op	-10.9152
▁줄여	-10.9152
▁인증	-10.9155
ist	-10.9156
▁예비	-10.9162
주와	-10.9163
자유	-10.9168
▁낱말	-10.9168
侯	-10.9168
洪	-10.9168
▁인터페이스	-10.9168
▁도쿠가와	-10.9168
이드	-10.9169
hPa	-10.9169
_8	-10.917
Ho	-10.9171
▁보잉	-10.9172
▁농민	-10.9172
▁없었고	-10.9173
지게	-10.9174
▁이어지는	-10.9175
▁사막	-10.9178
▁마감	-10.9179
▁팝	-10.9179
▁영구	-10.9181
▁졸업한	-10.9183
▁사건으로	-10.9183
so	-10.9185
니스	-10.9188
▁일련	-10.919
▁따서	-10.9191
▁타임	-10.9191
언어	-10.9192
▁갖는다	-10.9198
▁등장한	-10.9202
▁추방	-10.9202
같이	-10.9203
ian	-10.9206
2009	-10.9211
а	-10.9221
▁핀	-10.9222
In	-10.9224
▁아이들	-10.9224
▁하여금	-10.9227
▁호주	-10.9229
▁것인데	-10.9234
▁일본에	-10.9235
2013	-10.9242
▁웨스트	-10.9248
핵	-10.9251
ty	-10.9252
and	-10.9253
제로	-10.9254
▁갈색	-10.9259
▁민주주의	-10.926
▁형법	-10.926
▁거친	-10.9266
▁Y	-10.9266
▁작	-10.9267
장치	-10.9271
▁헬	-10.9273
▁의미로	-10.9274
▁사양	-10.9275
▁없애	-10.9278
▁국가에서	-10.9279
EA	-10.9281
▁02:1	-10.9281
▁사용해	-10.9281
▁생각해	-10.9283
버리	-10.9289
▁같아	-10.929
▁구성하는	-10.9292
▁본문	-10.9294
▁이들이	-10.9295
▁제공하고	-10.9299
▁합	-10.9307
밍	-10.9309
▁무릎	-10.9309
年	-10.9309
▁쇠퇴	-10.9309
▁탄핵	-10.9309
▁모르겠습니다	-10.9311
▁맺었다	-10.9312
Sa	-10.9312
▁낳았다	-10.9314
▁그러	-10.9315
▁않았지만	-10.9316
▁재임	-10.9317
▁절	-10.9317
눈	-10.9318
▁떠났다	-10.932
▁하나가	-10.932
▁톰	-10.9325
▁먹는다	-10.9325
▁처분	-10.9328
디스	-10.9333
▁이웃	-10.9335
녕	-10.9337
▁공산주의	-10.9337
▁밖으로	-10.9339
▁사람에게	-10.934
ᄑ	-10.9341
▁전송	-10.9342
▁하나님의	-10.9348
▁수여	-10.9348
▁찾아가	-10.9349
사에서	-10.935
로운	-10.9353
통신	-10.9354
▁당연ᄒ	-10.936
근거가	-10.936
▁변형	-10.9363
감독	-10.9368
▁허가	-10.9369
접	-10.9374
티스	-10.9374
▁킹	-10.9375
호가	-10.9376
▁상황에	-10.9377
▁바이	-10.938
으면	-10.9381
▁저술	-10.9383
Ha	-10.9384
▁그녀를	-10.9385
▁with	-10.9387
들에서	-10.9388
▁아테네	-10.9389
전선	-10.9392
로마	-10.9393
▁알바니아	-10.94
▁빨리	-10.9402
활동을	-10.9402
▁각국	-10.941
▁성질	-10.9412
세리에	-10.9417
베리	-10.9418
AT	-10.942
▁선물	-10.9421
▁혁신	-10.9421
겠다고	-10.9423
▁라이트	-10.9423
▁이곳에서	-10.9424
들어	-10.9428
군으로	-10.9431
데이	-10.9431
▁유전	-10.9431
est	-10.9431
▁아파트	-10.9432
▁브라	-10.9435
랜	-10.9435
▁강요	-10.9439
종은	-10.9447
칙	-10.9447
崔	-10.9452
▁인천광역시	-10.9452
▁중심기압	-10.9452
▁쿠데타	-10.9452
性	-10.9452
▁주택	-10.9452
ak	-10.9453
▁학살	-10.9454
▁구멍	-10.9454
▁한나라당	-10.9455
노동	-10.9455
▁대성당	-10.9456
▁안양	-10.946
▁잭	-10.9462
▁않았던	-10.9464
▁세워진	-10.9466
▁경향이	-10.9466
▁적극적으로	-10.9467
▁AFC	-10.9469
▁해협	-10.9471
▁아예	-10.9472
▁드러내	-10.9477
▁무사	-10.9479
었던	-10.9482
▁반경	-10.9482
der	-10.9489
▁캠퍼스	-10.949
▁일치	-10.949
▁개명	-10.949
▁강조	-10.9493
▁보이며	-10.9495
계에서	-10.9498
AC	-10.9499
ung	-10.9499
▁중기	-10.95
불교	-10.95
▁수밖에	-10.9502
he	-10.9504
▁판사	-10.9505
▁모바일	-10.9505
▁문구	-10.9507
▁생각하고	-10.9513
▁기록하며	-10.9514
필드	-10.9516
▁게임이다	-10.9516
▁사용하기	-10.9518
▁라틴어	-10.9519
our	-10.9521
▁전투기	-10.9523
▁성공적	-10.9524
조의	-10.9524
했었다	-10.9527
▁1928	-10.9529
▁비롯해	-10.9529
대전	-10.953
▁토론이	-10.9535
▁보여주는	-10.9536
▁그와	-10.9537
‘	-10.9538
▁이란	-10.9539
▁복합	-10.9539
▁대표로	-10.9544
▁→	-10.9546
프라	-10.9548
쿄	-10.9551
▁주어	-10.9551
▁영향으로	-10.9551
▁공통	-10.9555
▁전원	-10.9555
▁꾸준ᄒ	-10.9556
▁사유에	-10.9556
▁권리를	-10.9559
학적	-10.9561
▁1,000	-10.9564
▁처	-10.9565
▁포함하는	-10.9571
▁됐다	-10.9578
▁실제로는	-10.9578
▁화가	-10.9579
▁적도	-10.9581
▁인기가	-10.9582
시키	-10.9583
지방법원	-10.9583
FC	-10.959
퇴	-10.959
▁열리는	-10.9593
昌	-10.9596
▁닌텐도	-10.9597
▁이르기까지	-10.9597
인명사전	-10.9597
▁밀라노	-10.9597
▁문화재자료	-10.9597
▁파티	-10.9598
223	-10.9598
▁팬들	-10.9598
검사	-10.96
종이	-10.9606
▁없음	-10.9607
종으로	-10.9608
께	-10.961
▁사용이	-10.9611
▁속의	-10.9612
힐	-10.9615
▁현상이	-10.9617
▁커	-10.9619
▁저명성	-10.962
▁숙종	-10.9625
▁중립성	-10.9626
▁아티스트	-10.9626
▁줄기	-10.9627
▁싶은	-10.9627
▁지원하는	-10.9628
▁효소	-10.9639
▁문을	-10.9639
▁09:0	-10.9639
▁후보가	-10.964
▁힐	-10.9642
▁특	-10.9644
ph	-10.965
▁진짜	-10.9652
▁사도	-10.9653
보니	-10.9655
독일	-10.9656
end	-10.9656
명과	-10.9662
▁빌리	-10.9664
▁본선에	-10.9665
▁모형	-10.9667
▁추가되었다	-10.9667
Na	-10.9667
▁열어	-10.9667
ka	-10.9675
▁편입	-10.9678
▁밖	-10.9679
쯔	-10.9688
▁아들이	-10.969
▁be	-10.9694
모양	-10.9697
▁대회를	-10.9702
우드	-10.9711
▁골을	-10.9711
▁쓰지	-10.9713
▁09:2	-10.9715
ong	-10.9717
듀	-10.9717
운영	-10.9718
▁변신	-10.9723
▁끝으로	-10.9723
▁못할	-10.9723
▁문재인	-10.9731
ᆫ스	-10.9732
셰	-10.9732
▁작성한	-10.9733
Ro	-10.9736
▁페이	-10.9738
▁소멸	-10.9739
▁자리에서	-10.974
▁잭슨	-10.9742
▁식품	-10.9743
松	-10.9744
禮	-10.9744
▁사단법인	-10.9744
▁누군가	-10.9744
▁선포	-10.9744
▁근육	-10.9745
▁셋째	-10.9745
▁다이묘	-10.9745
▁발휘	-10.9745
▁나고야	-10.9745
▁나폴리	-10.9745
▁생애	-10.9746
UTC	-10.9746
▁섬에	-10.9746
▁직전	-10.9747
▁입은	-10.9747
▁02:0	-10.9748
▁반박	-10.975
▁석방	-10.975
▁히트	-10.9752
▁삼았다	-10.9753
▁모르	-10.9753
▁집행	-10.9753
▁위치에	-10.9754
▁상원	-10.9754
▁모집	-10.9754
사람	-10.9756
▁휘하	-10.9758
▁지역이	-10.9758
▁입었다	-10.976
▁해명	-10.9761
동물	-10.9762
틱	-10.9762
▁압력	-10.9767
▁구체적으로	-10.9767
▁가게	-10.9772
른바	-10.9773
▁분노	-10.9774
님은	-10.9774
▁와서	-10.9778
▁계획이	-10.978
▁계층	-10.9783
▁특허	-10.9783
▁유비	-10.9783
So	-10.9785
▁매일	-10.9785
▁제외하고	-10.9787
측의	-10.9788
▁요구하는	-10.9788
컨	-10.9789
▁인구가	-10.9789
자들	-10.9792
▁쓴다	-10.9792
▁내셔널	-10.9797
ᆯ수록	-10.9798
▁사운드	-10.9799
웰	-10.98
▁출전해	-10.9802
▁흘러	-10.9804
▁인터뷰에서	-10.9805
▁완료	-10.9808
▁하겠습니다	-10.9809
▁법정	-10.981
중국	-10.9811
럴	-10.9818
▁주력	-10.9821
▁타입	-10.9826
ᆷ은	-10.9827
간에	-10.9827
중앙	-10.9828
cc	-10.983
역이	-10.9832
▁다루는	-10.9834
자키	-10.9837
▁엄	-10.9838
▁점프	-10.9838
▁자치구	-10.9841
쇠	-10.9845
등급	-10.9846
帝	-10.9846
▁임신	-10.9846
▁털	-10.9852
▁서기	-10.9859
▁발발	-10.9861
식이	-10.9862
▁제일	-10.9865
▁예루살렘	-10.9866
ba	-10.9867
▁읽어	-10.9868
▁동해	-10.9869
▁섬식	-10.9874
▁이날	-10.9874
▁담은	-10.9876
%9	-10.9879
▁장남	-10.9881
ᅧ	-10.9881
123	-10.9883
▁01:2	-10.9888
▁대령	-10.989
▁총선	-10.989
樂	-10.9893
後	-10.9893
智	-10.9893
集	-10.9893
▁뮌헨	-10.9893
▁시나리오	-10.9893
驛	-10.9893
커다란	-10.9893
有	-10.9893
▁북아메리카	-10.9893
▁불리며	-10.9895
Se	-10.9895
▁브라운	-10.9895
▁별다른	-10.9895
▁BBC	-10.9896
▁상처	-10.99
크로	-10.99
▁이번에	-10.9901
▁약탈	-10.9901
▁레알	-10.9901
오르	-10.9904
▁사람으로	-10.9912
▁어려움	-10.9916
▁중에서도	-10.9919
news	-10.9919
2008	-10.9919
▁맞	-10.992
▁중국에서	-10.9921
▁차지한다	-10.9923
▁호는	-10.9926
▁보았다	-10.9927
빠	-10.993
ry	-10.993
미디어	-10.9931
선거	-10.9934
우라	-10.9935
▁건너가	-10.9936
ance	-10.9941
▁백인	-10.9943
이론	-10.9945
순위	-10.9947
▁이건	-10.9948
▁공중	-10.9948
https	-10.9949
▁문제는	-10.995
▁15:0	-10.9952
▁언제	-10.9957
▁확인하시	-10.9963
위의	-10.9964
con	-10.9964
하실	-10.9971
▁주제로	-10.9975
ᅢ	-10.9976
특	-10.9977
▁찾는	-10.9977
▁활	-10.9978
▁인디언	-10.9979
▁연고지	-10.9983
▁자본주의	-10.9985
경기에서	-10.9993
*	-10.9993
▁최후	-10.9993
▁산지	-10.9995
▁위원회	-10.9996
▁소득	-10.9996
값을	-10.9997
ᆨ이	-11.0001
▁38	-11.0005
▁파이	-11.0011
션	-11.0011
ᆯ리아	-11.0014
▁집에	-11.0017
▁연산	-11.0018
▁사업을	-11.002
▁축구단	-11.0023
이상	-11.0025
▁18:0	-11.003
▁잠수함	-11.003
▁반대하는	-11.0034
▁서명을	-11.0035
▁세력이	-11.0035
군에서	-11.004
황제	-11.0041
▁파트너	-11.0042
ig	-11.0042
通	-11.0045
▁아마추어	-11.0045
▁프로토콜	-11.0045
▁구에	-11.0045
▁인텔	-11.0047
▁중추원	-11.0047
▁않을까요	-11.0047
▁좁은	-11.0048
▁시계	-11.0048
▁두려워	-11.0049
▁개성	-11.0049
▁갖게	-11.0051
▁상태에	-11.0057
▁발효	-11.0058
▁일으켰다	-11.0058
성에	-11.0058
▁달린	-11.0059
▁관계로	-11.0061
▁세조	-11.0063
▁모양으로	-11.0066
▁글씨	-11.0066
▁거기에	-11.0067
▁가득	-11.0068
▁비행기	-11.0068
▁모르는	-11.0069
▁권유	-11.0069
▁42	-11.0071
▁한정	-11.0072
▁흐르는	-11.0073
▁돌파	-11.0077
▁그동안	-11.0078
▁흰	-11.008
▁차체	-11.0081
▁노선을	-11.0083
▁새끼	-11.0084
꾸	-11.0086
위원장	-11.0086
▁총재	-11.0088
▁수치	-11.0089
▁발표되었다	-11.0089
▁마법	-11.0094
손을	-11.0094
▁단종	-11.0095
▁고지	-11.0096
▁것이고	-11.0097
륜	-11.01
▁루마니아	-11.01
아시아	-11.0105
▁경성	-11.0108
미야	-11.011
▁시간대	-11.011
▁01:5	-11.0111
▁타자	-11.0113
▁연계	-11.0116
이시	-11.0121
▁사법	-11.0122
▁1907	-11.0123
갔다	-11.0123
▁당사자	-11.0125
▁반사	-11.0125
야스	-11.0126
하기에	-11.0129
▁요코하마	-11.0129
▁호흡	-11.0129
▁입고	-11.0133
▁이끌어	-11.0134
첩	-11.0134
대에	-11.0136
▁다다	-11.0139
노리	-11.0143
▁아프가니스탄	-11.0143
▁누구	-11.0143
▁주간	-11.0146
되거나	-11.015
▁설명을	-11.0153
구에	-11.0155
▁막기	-11.0156
위키백과	-11.0159
_4	-11.0159
멜	-11.0162
▁원하는	-11.0166
원은	-11.0168
▁20:0	-11.017
▁베네수엘라	-11.0171
▁벤	-11.0175
들이다	-11.018
▁축소	-11.0185
▁빼	-11.0185
▁일으킨	-11.0187
▁주식회사	-11.019
▁미국으로	-11.0191
▁스미스	-11.0193
였는데	-11.0194
康	-11.0198
字	-11.0199
▁그랑프리	-11.0199
內	-11.0199
▁토머스	-11.0199
▁무조건	-11.02
▁실시간	-11.0201
▁비상	-11.0201
▁여기에서	-11.0202
▁샤를	-11.0203
▁간단한	-11.0206
▁되었는데	-11.0208
▁않았기	-11.021
▁갑	-11.0212
▁협의	-11.0213
▁골드	-11.0217
타로	-11.0219
KBS	-11.022
ya	-11.022
▁조선의	-11.022
▁격	-11.0229
▁내는	-11.0231
8%	-11.0233
▁포함되었다	-11.0236
▁12:0	-11.0238
▁잡고	-11.0239
▁담고	-11.0239
▁광복	-11.0241
▁형사소송법	-11.0242
▁주지사	-11.0242
혀	-11.0243
▁벨	-11.0248
▁켄	-11.0248
ST	-11.0249
2007	-11.0252
▁수도권	-11.0254
▁곽	-11.0256
카타	-11.0257
▁맹	-11.0258
▁55	-11.0263
▁폴리	-11.0269
▁드립니다	-11.0271
▁옆에	-11.0271
자에	-11.0273
해왔다	-11.0275
▁나타난	-11.0275
▁희생	-11.0279
점이	-11.0283
▁사당	-11.0284
hi	-11.0286
EB	-11.0287
▁궁전	-11.0288
타운	-11.029
▁아니라면	-11.029
▁경전	-11.0291
▁기록에	-11.0293
널	-11.0294
民	-11.0295
▁주체	-11.0296
면에	-11.0297
▁기수	-11.0303
▁상업적	-11.0305
ee	-11.0307
▁대칭	-11.0307
▁영주	-11.031
▁유물	-11.0311
▁형사	-11.0312
▁바람에	-11.0313
▁입증	-11.0319
▁노리	-11.0321
비를	-11.0327
ja	-11.033
▁여지	-11.0331
▁전해진	-11.0333
▁내장	-11.0339
마사	-11.034
▁물리학	-11.0341
_6	-11.0341
역에서	-11.0344
▁불화	-11.0345
▁빅	-11.0345
▁정치가	-11.0345
▁방안	-11.035
리지	-11.0352
공업	-11.0353
馬	-11.0355
春	-11.0355
▁꽤	-11.0355
雲	-11.0355
根	-11.0355
▁정기	-11.0355
▁소규모	-11.0356
▁지지하는	-11.0358
▁추락	-11.0358
▁마시	-11.036
▁평면	-11.0361
▁정벌	-11.0362
▁이어져	-11.0362
▁분들	-11.0363
이라며	-11.0365
▁두번째	-11.0366
▁생성된	-11.0366
▁계신	-11.0366
▁규제	-11.0367
▁관계는	-11.0368
ers	-11.0369
하여야	-11.0371
▁개체	-11.0372
▁순수	-11.0373
▁포도주	-11.0374
▁늘	-11.0375
▁예방	-11.0375
▁전쟁에	-11.0377
AL	-11.0378
▁중력	-11.0378
▁구성원	-11.0388
재위	-11.0389
▁조용	-11.0395
코스	-11.0396
▁중요하다	-11.0401
▁양도	-11.0402
음력	-11.0409
지사	-11.041
▁열차가	-11.0411
▁플레이오프	-11.0412
SA	-11.0414
▁보상	-11.0417
교통	-11.0422
▁효율적	-11.0422
▁독점	-11.0423
철학	-11.0423
▁발매한	-11.0424
▁조카	-11.0426
▁눈물	-11.0427
ᆫ다는	-11.0429
▁떠	-11.043
▁소속의	-11.043
▁민중	-11.0432
▁광장	-11.0433
▁무단	-11.0433
▁가져온	-11.0433
▁이사장	-11.0434
▁막대	-11.0435
▁손권	-11.0436
▁거인	-11.0436
▁수업	-11.0436
BS	-11.0438
▁지역구	-11.0439
▁탐	-11.0439
up	-11.044
▁언어로	-11.0443
▁하느님	-11.0443
▁구상	-11.0444
▁방언	-11.0445
되었다고	-11.0445
속에	-11.0448
거리를	-11.0449
▁전부터	-11.045
▁수익	-11.0458
승을	-11.0458
Ma	-11.0459
맥	-11.046
▁+	-11.0462
ut	-11.0462
▁아베	-11.0464
▁환승	-11.0467
▁서적	-11.0469
▁활동이	-11.0472
▁아는	-11.0472
▁타인	-11.0473
▁시도하시	-11.0474
국장	-11.0475
▁미드필더	-11.0478
▁작품이	-11.048
▁유고슬라비아	-11.0485
▁얻게	-11.0486
▁개별	-11.0486
ff	-11.0486
▁조절	-11.0487
ᆻ네요	-11.0489
▁EP	-11.05
▁돌려	-11.05
▁집에서	-11.0503
▁다룬	-11.051
記	-11.0513
佛	-11.0513
▁새누리당	-11.0514
▁하드웨어	-11.0514
▁응답	-11.0514
▁말아주세요	-11.0514
▁정확하게	-11.0514
▁압축	-11.0514
정이	-11.0514
▁덕분에	-11.0514
▁카르	-11.0515
▁하버드	-11.0515
역을	-11.0515
▁수백	-11.0516
▁이것	-11.0516
▁개찰구	-11.0517
▁없지만	-11.0517
▁움직임	-11.0518
럼	-11.0522
▁초청	-11.0523
▁최신	-11.0523
▁가능하게	-11.0524
▁조상	-11.0524
▁일시적으로	-11.0524
논	-11.0527
▁본토	-11.0532
▁이루어	-11.0534
▁지점	-11.0534
▁이용하는	-11.0535
받고	-11.0535
펠	-11.0536
▁무산	-11.0542
▁질환	-11.0542
▁돌아오	-11.0543
▁집회	-11.0544
▁1912	-11.0546
되므로	-11.0546
▁시청	-11.0546
코프	-11.0547
▁속성	-11.0547
▁고급	-11.055
대사	-11.0552
▁1896	-11.0554
Lee	-11.0555
▁화합물	-11.0557
▁정차	-11.056
▁대선	-11.0561
▁이행	-11.0561
▁첫째	-11.0562
▁주에서	-11.0563
▁파워	-11.0564
해졌다	-11.0567
▁33	-11.0569
▁붙어	-11.0569
▁유치	-11.0574
▁이적하였다	-11.0581
주간	-11.0584
계에	-11.0587
▁밥	-11.059
▁아라	-11.0591
112	-11.0593
land	-11.0594
▁정면	-11.0596
▁방지	-11.0601
▁회수	-11.0601
공사가	-11.0601
▁합쳐	-11.0607
▁오른	-11.0608
▁목성	-11.061
유럽	-11.0611
su	-11.0612
▁마찬가지	-11.0613
▁물건	-11.0614
八	-11.0615
▁토막글	-11.0617
MP	-11.0618
겸	-11.0623
▁뜨	-11.0624
▁라이	-11.0625
내용	-11.0625
제는	-11.0625
▁64	-11.0626
si	-11.0629
▁인공	-11.0629
이론을	-11.063
자본	-11.063
▁남긴	-11.0632
▁위대한	-11.0637
▁소리를	-11.064
Sh	-11.0641
터널	-11.0641
▁세금	-11.0641
▁인터	-11.0642
상태	-11.0643
▁베타	-11.0645
▁위로	-11.0645
▁적응	-11.0647
▁주장한다	-11.065
▁주어진	-11.065
마을	-11.0651
▁앨범을	-11.0653
▁좋다	-11.0654
리얼	-11.066
리를	-11.0661
▁리드	-11.0661
▁하원	-11.0667
▁미만	-11.0667
아르	-11.067
우치	-11.0671
에게도	-11.0673
宮	-11.0675
體	-11.0675
同	-11.0675
▁침몰	-11.0675
▁의도	-11.0677
대교	-11.0677
vi	-11.0678
▁별자리	-11.0678
▁비자유	-11.0679
▁별명	-11.068
▁사료	-11.068
▁배열	-11.0681
▁그려져	-11.0681
▁표현이	-11.0682
▁호칭	-11.0684
▁조언	-11.0685
▁최종적으로	-11.0686
▁부호	-11.0687
▁종족	-11.0688
▁조별	-11.0691
▁코파	-11.0696
가스	-11.0698
▁동구	-11.0698
▁여론	-11.07
ill	-11.0705
함과	-11.0706
▁주요한	-11.0706
▁전북	-11.0708
▁하였으나	-11.0708
▁배급	-11.0708
▁당국	-11.0709
▁설득	-11.071
ate	-11.0711
유키	-11.0716
▁운동에	-11.0719
도르	-11.0725
ᆻ거나	-11.0725
▁과학적	-11.0727
tion	-11.0727
AD	-11.0728
▁물리적	-11.0731
▁자본	-11.0731
▁03:2	-11.0732
▁상관	-11.0732
빅	-11.0734
니까	-11.0736
성군	-11.0737
▁히로시마	-11.0737
▁총독	-11.0739
▁전승	-11.0743
▁색상	-11.0743
ab	-11.0746
▁프로그래밍	-11.0751
▁대학에서	-11.0752
▁08:4	-11.0754
▁좌우	-11.0755
▁산소	-11.0757
ick	-11.0761
책임	-11.0764
em	-11.0766
▁존스	-11.0766
테크	-11.0769
▁600	-11.077
▁위원	-11.077
▁벼슬	-11.0771
▁소관	-11.0772
▁철학자	-11.0775
▁저의	-11.0777
스포츠	-11.0777
족의	-11.0778
▁심한	-11.0779
셀	-11.078
▁고객	-11.0782
▁유통	-11.0782
인간	-11.0783
드는	-11.0785
211	-11.0787
▁사정	-11.0788
Ge	-11.0789
▁일화	-11.0795
▁퍼	-11.0798
▁압도적	-11.0809
▁일원	-11.081
ks	-11.0814
메르	-11.0815
▁수록되어	-11.082
▁부동산	-11.0826
net	-11.0827
▁조선인	-11.0829
▁영어로	-11.083
튜	-11.0832
203	-11.0837
▁컬러	-11.0837
▁발명	-11.0838
史	-11.0838
체제	-11.0838
敎	-11.0838
α	-11.0839
孫	-11.0839
▁스펙트럼	-11.0839
高等學校	-11.0839
하려면	-11.084
잘못되었는지	-11.084
▁촉진	-11.0842
▁확신	-11.0842
▁압박	-11.0842
▁선거구	-11.0843
▁일환으로	-11.0843
nt	-11.0844
▁얻고	-11.0844
▁대결	-11.0845
▁실천	-11.0846
크레	-11.0847
▁주문	-11.0847
▁농장	-11.0849
▁돌아왔다	-11.0849
▁나오지	-11.0853
▁기술이	-11.0855
▁후속	-11.0855
▁있나요	-11.086
▁국장	-11.086
▁마음에	-11.0861
층은	-11.0862
히코	-11.0862
▁싶다	-11.0863
▁1916	-11.0866
▁아트	-11.0867
홀	-11.0868
士	-11.0868
▁소지	-11.0869
▁음악가	-11.0871
都	-11.0871
▁폭스	-11.0872
▁준공	-11.0872
▁하에	-11.0873
대대	-11.0873
▁밀려	-11.0874
if	-11.0875
▁나이에	-11.0878
▁재생	-11.0879
대와	-11.0883
▁법학	-11.0884
부르크	-11.0885
▁체험	-11.0886
ᇁ	-11.0886
▁웨	-11.0887
Pa	-11.0888
▁마치고	-11.0892
▁존중	-11.0893
▁그곳에서	-11.0893
▁생각하는	-11.0894
▁탄	-11.0896
사키	-11.0897
▁보이	-11.09
▁자유당	-11.09
▁레이다	-11.09
▁크로스	-11.09
안에	-11.09
▁JR	-11.0902
▁학자	-11.0903
▁짜	-11.0905
오는	-11.0909
종교	-11.0909
하시면	-11.091
▁창작	-11.0911
▁늑대	-11.0912
▁조기	-11.0915
▁막을	-11.0915
▁별도로	-11.0915
▁김씨	-11.0916
▁균형	-11.0916
▁레벨	-11.0917
全	-11.0919
여명	-11.0919
▁취득	-11.092
▁나카	-11.0921
nd	-11.0925
발전	-11.0927
통일	-11.0927
▁생존	-11.093
파의	-11.093
▁들어가게	-11.0933
밤	-11.0937
ᆰ	-11.0939
▁가공	-11.0942
▁강등	-11.0942
회에	-11.0945
해진	-11.0948
▁토대로	-11.0949
구치	-11.0949
▁쓰여	-11.0952
▁지우	-11.0957
▁생일	-11.0959
▁직원	-11.0959
▁이루어진다	-11.096
▁메이	-11.0961
▁보스	-11.0961
▁고려시대	-11.0961
▁대항	-11.0962
▁콩	-11.0962
▁지혜	-11.0963
바스	-11.0964
▁반영	-11.0964
▁털이	-11.0964
▁군단	-11.0964
Th	-11.0965
▁국가들	-11.0967
▁상수	-11.0969
▁밑에	-11.0972
▁실시된	-11.0977
▁800	-11.098
협의회	-11.0981
년부터는	-11.0985
▁발간	-11.0987
략	-11.0989
▁광산	-11.0989
푼	-11.099
야구	-11.0991
데스	-11.0991
▁일반적	-11.0991
▁손에	-11.0991
▁데이터베이스	-11.0993
뼈	-11.0993
▁진영	-11.0996
▁싸워	-11.0997
경영	-11.1
선과	-11.1001
▁등판	-11.1002
아프리카	-11.1003
主	-11.1004
▁디즈니	-11.1005
古	-11.1005
周	-11.1005
柳	-11.1005
▁아니오라	-11.1006
▁상호작용	-11.1006
▁크루	-11.1006
▁몸길이	-11.1006
해주시기	-11.1006
▁혼자	-11.1009
▁클래식	-11.1009
▁봉기	-11.101
▁남녀	-11.1011
▁결승전에서	-11.1012
▁유발	-11.1012
미술	-11.1012
▁최근에는	-11.1013
정의	-11.1013
러시아	-11.1014
득점	-11.1014
▁천연	-11.1015
형식	-11.1017
▁시작했고	-11.1018
▁지방에서	-11.102
▁제자	-11.1021
으로도	-11.1022
▁사촌	-11.1022
권이	-11.1026
▁c	-11.1028
▁전술	-11.103
▁담배	-11.1032
▁달려	-11.1038
디어	-11.104
▁1911	-11.1041
아과	-11.1041
▁창원	-11.1041
ip	-11.1042
▁않았으며	-11.1044
자에게	-11.1044
이었는데	-11.1045
▁소속사	-11.1047
▁위치하며	-11.1049
▁문제에	-11.1052
▁정교회	-11.1052
▁육성	-11.1053
▁새롭ᄀ	-11.1053
▁DVD	-11.1053
▁담당하	-11.1055
▁기소	-11.1058
▁04:	-11.1061
▁문화적	-11.1064
▁기부	-11.1068
▁마이	-11.1072
NA	-11.1073
법이	-11.1073
▁저작권이	-11.1073
주된	-11.1073
리스트	-11.1075
▁역과	-11.1078
vo	-11.1079
▁이어서	-11.1086
▁클래스	-11.1089
르트	-11.109
자로서	-11.1091
▁사면	-11.1092
▁편의	-11.1093
▁모음	-11.1095
▁하더라도	-11.1099
짜	-11.1101
ᆯ리스	-11.1104
해져	-11.1104
▁내리	-11.1106
▁고치	-11.1106
▁일본은	-11.1106
▁적극	-11.1107
▁올라와	-11.1108
▁공세	-11.1108
▁이성	-11.1111
성으로	-11.1112
▁피렌체	-11.1114
채널	-11.1114
렬	-11.1115
▁중구	-11.1115
▁셰	-11.1116
영어	-11.1117
▁44	-11.1124
▁바르	-11.1125
▁로드	-11.1129
▁교수로	-11.1129
기준	-11.113
▁국방	-11.113
여서	-11.1134
▁장악	-11.1134
관으로	-11.1136
▁의문	-11.1137
▁올리	-11.1139
▁거리에	-11.1141
CH	-11.1142
▁발생한다	-11.1145
▁포인트	-11.1147
▁관광	-11.1149
▁가야	-11.115
▁굴	-11.115
my	-11.115
▁소위	-11.1153
▁동방	-11.1156
▁형성된	-11.1156
▁부상으로	-11.1157
▁후손	-11.1157
▁지정되어	-11.1158
▁출마	-11.1161
▁야당	-11.1161
▁겨우	-11.1165
▁외계	-11.1165
▁일곱	-11.1167
▁대우	-11.1169
Li	-11.1172
▁이념	-11.1172
col	-11.1174
化	-11.1174
▁작동	-11.1174
www	-11.1175
寶	-11.1175
時	-11.1175
▁많고	-11.1175
▁요미우리	-11.1175
▁힙합	-11.1175
權	-11.1175
臣	-11.1175
▁윌슨	-11.1175
▁디젤	-11.1175
편의	-11.1175
직접적인	-11.1176
▁망원경	-11.1176
▁상속	-11.1177
han	-11.1178
▁동아시아	-11.1178
▁하나님	-11.1181
▁끝났다	-11.1181
조치	-11.1182
▁보충	-11.1183
퍼드	-11.1184
▁영감	-11.1187
▁제사	-11.1189
컴	-11.1189
▁여신	-11.1191
▁살았다	-11.1192
▁도와	-11.1192
▁여성의	-11.1193
▁아니었다	-11.1193
▁끌어	-11.1194
훈련	-11.1196
▁곡선	-11.1196
▁한강	-11.1198
〈	-11.1201
강을	-11.1204
PA	-11.1204
▁설이	-11.1206
▁서울에서	-11.1206
▁호소	-11.1212
▁종결	-11.1217
해주는	-11.1218
▁이상한	-11.1218
▁단선	-11.1222
▁개인적으로	-11.1222
▁제국이	-11.1224
▁수록된	-11.1224
▁똑같은	-11.1225
▁것보다	-11.1226
▁열차는	-11.1228
다리	-11.1229
임에도	-11.1229
▁성립한다	-11.1231
▁흥미	-11.1233
▁가마	-11.1234
▁힘이	-11.1237
끼	-11.1238
▁지름	-11.1239
▁유역	-11.1242
▁졸업했다	-11.1243
▁모습으로	-11.1243
▁마산	-11.1245
▁소비자	-11.1245
▁발견한	-11.1246
▁해상에서	-11.1247
계열	-11.1249
▁추적	-11.1252
▁밑	-11.1252
▁개장	-11.1259
CC	-11.126
▁지켜	-11.1265
▁전형적이	-11.1268
▁인터뷰	-11.1276
Gu	-11.1278
인치	-11.1281
▁1898	-11.1283
▁제약	-11.1285
▁소형	-11.1286
▁가구	-11.1288
호에	-11.1288
▁뒷	-11.1289
▁골키퍼	-11.1294
▁두루	-11.1296
▁De	-11.1299
작가	-11.1301
▁시점에서	-11.1301
▁아님	-11.1303
▁최대한	-11.1309
ᄉ	-11.1312
개미	-11.1312
2004	-11.1315
부와	-11.1315
▁때로	-11.1316
타임	-11.1321
▁구리	-11.1322
쾌	-11.1324
▁영화로	-11.1325
▁메탈	-11.1326
무역	-11.1327
▁동치	-11.1328
쇄	-11.1329
▁놓여	-11.1329
뇨	-11.1331
▁수십	-11.1336
▁회의에서	-11.1337
▁참여하여	-11.1338
▁차단이	-11.1339
▁집필	-11.134
▁와중에	-11.1342
John	-11.1344
十	-11.1347
▁자이언츠	-11.1347
吳	-11.1347
直	-11.1347
建	-11.1347
▁MVP	-11.1347
▁남아메리카	-11.1348
▁좌익	-11.1349
▁히가시	-11.135
▁왕가	-11.1351
▁가끔	-11.1353
▁시점	-11.1356
▁이씨	-11.1357
▁당선되었다	-11.1357
▁코리아	-11.1361
베르트	-11.1362
여성	-11.1363
▁꺾고	-11.1364
지기	-11.1364
▁식량	-11.1364
▁리그에서	-11.1366
▁특징이	-11.1366
ci	-11.137
ᄆ	-11.137
▁1917	-11.1372
DE	-11.1374
ud	-11.1375
부산	-11.1375
Ka	-11.1375
상에	-11.1376
▁빵	-11.1378
▁에릭	-11.1378
라이트	-11.1379
▁결과로	-11.138
모델	-11.1381
▁명문	-11.1385
▁입법	-11.1385
쥬	-11.1388
▁동서	-11.1389
▁방송된	-11.139
▁지내고	-11.139
장관	-11.1396
羅	-11.1397
다니	-11.1398
등록	-11.1398
▁하는지	-11.1398
▁도심	-11.1399
▁영조	-11.1401
▁개수	-11.1403
▁사가	-11.1404
▁획득했다	-11.1405
▁월드컵에서	-11.1405
것도	-11.141
▁발전소	-11.1412
▁본명은	-11.1413
대표	-11.1414
젤	-11.1414
▁독립운동가	-11.142
▁하천	-11.1421
랭	-11.1421
▁공용	-11.1421
▁도서	-11.1424
▁차종	-11.1426
▁일으키	-11.1428
▁선형	-11.1428
닐	-11.1429
▁겐	-11.1429
▁진단	-11.1431
묵	-11.1432
▁측은	-11.1432
▁중지	-11.1432
Mar	-11.1433
연구원	-11.1436
▁생각됩니다	-11.1441
에서부터	-11.1444
▁평등	-11.1446
식은	-11.1447
▁관점에서	-11.145
sp	-11.1451
으면서	-11.1453
▁손상	-11.1458
2017	-11.1469
▁있었습니다	-11.1471
▁죽자	-11.1473
▁한신	-11.1473
▁34	-11.1476
▁조화	-11.1477
페이	-11.1477
아키	-11.1479
▁미나미	-11.148
분야	-11.1481
▁고기	-11.1482
른	-11.1483
▁예외	-11.1485
▁대답	-11.1487
굴	-11.149
프레	-11.1491
털	-11.1491
▁명확하	-11.1494
▁개량	-11.1495
▁레오	-11.1496
▁날에	-11.1496
▁크리스	-11.1498
발을	-11.1498
▁학생들이	-11.1499
▁성공했다	-11.1499
▁가시	-11.15
▁이외에	-11.15
다음	-11.1503
▁베르	-11.1505
▁후반에	-11.1505
▁악마	-11.1507
▁떨어지	-11.1509
정리	-11.1509
대장	-11.151
▁01:4	-11.151
▁고양이	-11.1512
▁죄송합니다	-11.1512
▁아이디어	-11.1513
▁트레	-11.1519
능력	-11.152
뱅	-11.1522
▁맞추어	-11.1522
方	-11.1522
木	-11.1523
▁비잔티움	-11.1523
名	-11.1523
▁코무네	-11.1523
▁앨런	-11.1523
픽	-11.1523
▁피해자	-11.1525
연평균	-11.1525
▁지폐	-11.1527
▁왕립	-11.1528
▁대학원	-11.1529
▁김용	-11.153
▁치즈	-11.1534
하다고	-11.1534
▁칼리지	-11.1535
물이	-11.1536
▁빌	-11.1537
▁생겨나	-11.1537
▁찾기	-11.1537
▁명백한	-11.1539
▁체제를	-11.1539
▁태생	-11.1542
115	-11.1543
SE	-11.1546
▁파라	-11.1548
▁북미	-11.1548
▁차지하였다	-11.1553
박사	-11.1554
Ra	-11.1556
욕	-11.1558
클레	-11.1563
per	-11.1565
▁자연스럽	-11.1566
▁소유자	-11.1567
주의자	-11.1571
▁때마다	-11.1574
▁접한	-11.1575
▁관여	-11.1575
▁점은	-11.1588
▁여왕	-11.1588
사실	-11.159
▁항공사	-11.1592
▁동화	-11.1596
관련	-11.1598
700	-11.1598
년경	-11.1599
▁여인	-11.1601
닉	-11.1602
▁일은	-11.1602
예를	-11.1603
▁당선	-11.1603
▁유키	-11.161
▁독도	-11.161
▁부족한	-11.1611
▁바꾸는	-11.1611
정도가	-11.1614
조건	-11.1619
▁중동	-11.1621
▁신용	-11.1629
기독교	-11.1629
▁고베	-11.1633
건설	-11.1635
▁1909	-11.1637
▁75	-11.1637
▁마리오	-11.1639
▁촉	-11.1641
▁생각했다	-11.1643
▁양국	-11.1644
ᇀ	-11.1647
и	-11.1649
▁기용	-11.1652
▁결의	-11.1653
드립니다	-11.1665
▁무한	-11.1671
부터는	-11.1672
6%	-11.1676
단은	-11.1676
▁지불	-11.1678
▁행위에	-11.1681
선에	-11.1684
촉	-11.1687
ᆫ다고	-11.1688
하셨	-11.1688
보한다	-11.1692
▁발생했다	-11.1698
▁야생	-11.1699
수정	-11.17
▁교역	-11.1701
代	-11.1701
典	-11.1701
ー	-11.1701
寧	-11.1701
▁싱어송라이터	-11.1701
▁알렉산더	-11.1701
▁유니폼	-11.1701
▁판타지	-11.1701
泰	-11.1701
▁지중해	-11.1701
▁요즘	-11.1702
▁라이벌	-11.1702
、	-11.1702
▁며칠	-11.1702
좋아하는	-11.1703
▁짓	-11.1704
▁태어났으며	-11.1705
▁영화배우	-11.1708
▁일체	-11.1709
▁황태자	-11.1709
▁필요로	-11.1711
▁후한	-11.1712
▁부속	-11.1712
뷰	-11.1712
▁무엇	-11.1713
▁진나라	-11.1713
형으로	-11.1715
▁앨범은	-11.1716
▁1894	-11.1717
▁간주되	-11.1718
수로	-11.1718
▁한동안	-11.1719
ver	-11.172
▁쓰이고	-11.1721
dy	-11.1722
왕은	-11.1723
▁회담	-11.1725
▁대전광역시	-11.1725
▁구조가	-11.1728
파크	-11.1728
쏘	-11.1728
1915	-11.1729
▁결과적으로	-11.1733
eg	-11.1733
▁준우승	-11.1734
▁남한	-11.1734
▁위장	-11.1735
▁부임	-11.1743
▁굉장ᄒ	-11.1744
111	-11.1745
▁듯한	-11.1746
▁신사	-11.1746
인구	-11.1747
▁빠지	-11.1751
▁지적했다	-11.1751
Le	-11.1752
pro	-11.1755
000	-11.1758
180	-11.1761
▁때문	-11.1764
▁동굴	-11.1765
▁14:0	-11.177
▁연주자	-11.1774
▁그러다	-11.1775
시켰고	-11.1776
▁자제	-11.1776
▁소속되어	-11.1779
고요	-11.1784
▁디스크	-11.1784
▁유튜브	-11.1784
▁측면에서	-11.1785
번지	-11.1787
▁사실은	-11.1787
백만	-11.1788
2016	-11.1789
경찰서	-11.1791
▁과연	-11.1792
룸	-11.1792
▁현존하	-11.1792
▁바치	-11.1794
▁불가능	-11.1796
▁소재로	-11.1796
▁학사	-11.18
물질	-11.1801
▁프랑크	-11.1806
▁반면에	-11.1807
▁구체적	-11.1808
>,	-11.1808
이니	-11.181
▁대지	-11.1812
클럽	-11.1813
▁브레	-11.1813
▁측	-11.1815
▁활동에	-11.1817
▁오리지널	-11.1818
▁전두환	-11.1818
사전	-11.1818
▁대장	-11.1818
▁죽고	-11.182
▁우리는	-11.1823
▁유인	-11.1824
비가	-11.1825
정동	-11.1827
To	-11.1829
▁게이트	-11.1829
▁실려	-11.1831
▁연구소	-11.1831
CI	-11.1831
▁롤	-11.1838
▁능력이	-11.1839
186	-11.1839
▁가져	-11.1839
▁연구하는	-11.184
ap	-11.1843
▁장교	-11.1843
▁모래	-11.1844
▁존재하며	-11.1844
▁ᄋ	-11.1846
▁벌이	-11.1846
My	-11.1846
티아	-11.1849
▁임시정부	-11.1852
▁당한	-11.1853
버그	-11.1858
▁전남	-11.1859
▁일상	-11.1861
체를	-11.1863
점으로	-11.1864
▁관계자	-11.1864
판이	-11.1866
▁넘어가	-11.1874
▁대역	-11.1877
▁관계에	-11.1879
이름	-11.188
▁재능	-11.188
▁진술	-11.1883
社	-11.1883
實	-11.1883
右	-11.1883
星	-11.1883
스탄티노폴리스	-11.1883
▁토너먼트	-11.1883
▁포유류	-11.1883
源	-11.1883
▁관습	-11.1884
ᆫ족문제연구소	-11.1884
▁신칸센	-11.1884
▁멸종	-11.1885
▁사적	-11.1886
▁흥행	-11.1886
▁도시철도	-11.1886
CD	-11.1886
▁아기	-11.1887
▁아니지만	-11.1887
▁아키	-11.1888
▁잃고	-11.1889
▁성벽	-11.189
▁질문	-11.1891
보드	-11.1891
스로	-11.1893
▁얻기	-11.1893
형의	-11.1893
버렸다	-11.1894
▁사기	-11.1894
▁토요일	-11.1895
▁매각	-11.1895
자들의	-11.1897
▁게임은	-11.1898
또	-11.1898
▁세우고	-11.1899
ᅡᆫ	-11.19
▁더이상	-11.19
▁침	-11.19
▁발견되는	-11.1901
▁착수	-11.1902
▁수비수	-11.1903
Ca	-11.1904
▁김재	-11.1904
▁앞면	-11.1905
▁본질	-11.1906
▁앙리	-11.1906
▁실질적으로	-11.191
▁있으면서	-11.191
파가	-11.1912
▁충성	-11.1913
▁직선	-11.1915
▁카이	-11.1915
▁경유	-11.1917
▁유교	-11.1918
지대	-11.1919
먹	-11.1919
학을	-11.1921
행동	-11.1922
나카	-11.1923
▁데뷔전	-11.1929
▁유기	-11.193
▁발표된	-11.1932
▁과학기술	-11.1932
▁표기법	-11.1933
보고	-11.1933
▁선언했다	-11.1934
잠	-11.1935
▁주장은	-11.1935
▁풀어	-11.1947
바다	-11.1949
▁물이	-11.195
二	-11.1951
하라고	-11.1957
▁주최	-11.1958
햄	-11.1959
포트	-11.1963
▁우회	-11.1964
형이	-11.1966
첸	-11.1969
▁승려	-11.197
▁무선	-11.197
▁포도	-11.197
▁복지	-11.1972
▁08:0	-11.1973
out	-11.1973
▁정보가	-11.1974
▁영화제	-11.1976
Pro	-11.1977
▁분쟁이	-11.1979
▁복제	-11.1983
▁쉬	-11.1984
▁낮	-11.1987
▁정조	-11.1988
군단	-11.1988
▁이민	-11.1989
▁곡으로	-11.1989
▁구간이	-11.1991
시면	-11.1992
앤	-11.1992
▁설립했다	-11.1994
▁상인	-11.1994
▁아메리칸	-11.1995
토스	-11.1998
▁판정	-11.1998
러스	-11.2001
▁하인리히	-11.2002
▁사사	-11.2005
▁죽을	-11.2006
AM	-11.2006
▁필름	-11.2007
▁차단된	-11.2013
살이	-11.2015
피아	-11.2016
▁교차로	-11.2016
▁인간이	-11.2018
장에	-11.2018
▁돌아온	-11.2019
▁베이스	-11.2019
▁그럼	-11.2019
▁시내버스	-11.202
으려	-11.2024
전기	-11.2025
이거나	-11.2028
▁표본	-11.2029
황후	-11.2031
시에서	-11.2031
데르	-11.2033
▁버리고	-11.2033
▁정부와	-11.2035
▁물을	-11.2037
▁격파	-11.2037
빵	-11.2038
▁후퇴	-11.2038
▁차원	-11.2039
후에	-11.2039
▁다양하	-11.2041
▁못해	-11.2043
▁설립한	-11.2045
▁기다리	-11.2047
_9	-11.2047
▁120	-11.2048
타케	-11.2048
▁on	-11.2049
즉	-11.205
▁목록에서	-11.2053
개혁	-11.2054
문서에	-11.2055
▁교단	-11.2055
아리	-11.2056
▁부자	-11.2061
▁용기	-11.2062
hy	-11.2064
▁are	-11.2065
殿	-11.2067
lu	-11.2068
業	-11.2068
衛	-11.2068
陵	-11.2068
▁최대풍속	-11.2068
▁오디션	-11.2068
▁옵션	-11.2068
▁스타크래프트	-11.2068
▁히데요시	-11.2069
▁열심히	-11.2069
▁팽창	-11.2069
ga	-11.2069
▁that	-11.2069
▁베이스볼	-11.2069
▁아나운서	-11.207
▁페스티벌	-11.207
▁언급된	-11.207
▁현급	-11.2073
▁대주교	-11.2074
▁기간에	-11.2074
▁간다	-11.2076
▁잃었다	-11.2076
었으나	-11.2076
▁아우	-11.2077
▁운반	-11.2077
▁않았으나	-11.2078
▁남아있다	-11.2079
▁세례	-11.2079
위는	-11.2079
▁스승	-11.2081
▁물리	-11.2085
▁장기간	-11.2086
▁영국군	-11.2086
▁Ma	-11.2087
▁다루고	-11.2087
라디오	-11.2088
▁귀환	-11.2088
Jo	-11.2088
▁목포	-11.2089
▁차지하는	-11.2089
9%	-11.209
스테	-11.209
▁가장자리	-11.209
▁해변	-11.2092
▁Co	-11.2092
▁직장	-11.2096
ide	-11.2096
어족	-11.2097
▁들어가는	-11.2099
하시고	-11.2099
▁에티오피아	-11.2104
히로	-11.2105
▁뒤인	-11.2106
▁부지	-11.2109
▁이슈	-11.2109
법의	-11.2109
안타	-11.2112
▁제휴	-11.2113
▁||	-11.2116
▁일식	-11.2116
▁성직자	-11.2121
_10	-11.2122
▁수천	-11.2124
▁조명	-11.2127
▁광범위하	-11.213
CS	-11.2133
릴	-11.2134
▁원작으로	-11.2134
학부	-11.2139
▁요약	-11.214
▁커피	-11.2141
ect	-11.2142
▁센	-11.2142
하자는	-11.2144
▁군의	-11.2145
▁된다고	-11.2145
▁독립운동	-11.2146
▁하프	-11.2147
▁결과는	-11.2148
▁중에서는	-11.2149
구가	-11.215
▁말한	-11.2151
▁요인	-11.2152
지와	-11.2157
▁표명	-11.2158
▁해주	-11.2159
SS	-11.2159
ᆯ링	-11.216
▁국민당	-11.2168
쳤다	-11.2169
▁벌어지	-11.2171
▁따위	-11.2171
▁낼	-11.2173
▁말아	-11.2177
▁국제적	-11.2182
▁비중	-11.2183
▁기록하여	-11.2186
▁지점에	-11.2189
▁사물	-11.2194
▁다니	-11.2195
쿠마	-11.2196
가요	-11.2197
저우	-11.2205
▁중심이	-11.2208
▁척	-11.2208
▁부르	-11.2211
tu	-11.2211
La	-11.2215
시절	-11.2219
▁대처	-11.222
▁브라우저	-11.2224
▁개념은	-11.2224
▁의거	-11.2225
놈	-11.2229
상에서	-11.2229
▁텍사스	-11.223
▁기여했다	-11.2235
올림픽	-11.224
▁여름에	-11.224
▁성서	-11.224
시리즈	-11.2243
함대	-11.2243
▁인원	-11.2243
▁공자	-11.2249
진영	-11.2249
천군	-11.2251
▁거짓	-11.2251
▁국민의	-11.2253
특히	-11.2254
ᆷ으로	-11.2255
바시	-11.2255
司	-11.2256
制	-11.2257
▁많으며	-11.2257
▁꾀	-11.2257
▁여덟	-11.2257
▁from	-11.2257
令	-11.2257
語	-11.2257
九	-11.2257
宣	-11.2257
號	-11.2257
▁사찰	-11.2257
▁벽돌	-11.2257
▁엘리자베스	-11.2258
▁우라늄	-11.2258
▁스트레스	-11.2258
▁파란색	-11.2259
▁동독	-11.2262
▁바뀌어	-11.2263
▁띤	-11.2263
▁포항	-11.2263
플리	-11.2263
1991	-11.2264
▁성질을	-11.2265
▁야마토	-11.2265
▁안동	-11.2265
▁음모	-11.2267
▁향후	-11.2268
▁08:1	-11.2268
모스	-11.2268
▁신규	-11.2272
▁왕으로	-11.2272
할때	-11.2273
▁이재	-11.2273
나요	-11.2277
▁바라보	-11.2278
딸	-11.2278
▁자손	-11.228
혹	-11.228
▁청주시	-11.2284
▁집계	-11.2285
▁프랑스와	-11.2287
▁훈장	-11.2287
▁무시하고	-11.2289
▁부위	-11.2291
PD	-11.2291
Br	-11.2292
▁디자이너	-11.2293
▁랭킹	-11.2293
▁존슨	-11.2296
▁적합한	-11.2296
▁동시	-11.2296
투표	-11.2296
▁경제학	-11.2297
▁나라에서	-11.2298
▁착용	-11.2298
히라	-11.2298
▁장미	-11.2301
▁나갔다	-11.2306
▁스티븐	-11.2309
▁겁니다	-11.2322
od	-11.2323
올리	-11.2323
▁소환	-11.2326
▁가나	-11.2329
왕조의	-11.233
▁열리	-11.2331
▁했는데	-11.2331
ᆯ트	-11.2331
▁감지	-11.2334
물로	-11.2335
▁약한	-11.2335
되게	-11.2336
속의	-11.2338
융	-11.234
▁안되	-11.2343
▁동기	-11.2345
▁바르셀로나	-11.2345
▁치세	-11.2346
▁학위	-11.2347
크리	-11.2347
▁정부에서	-11.2348
▁따르는	-11.2349
주의적	-11.2349
ish	-11.2349
▁개척	-11.235
▁퀸	-11.2352
103	-11.2352
▁재검토	-11.2363
하면서도	-11.2363
▁스케이팅	-11.2363
▁유신	-11.2364
소스	-11.2365
▁형상	-11.2366
▁바가	-11.2367
▁후보자	-11.2368
▁자연수	-11.2368
재단	-11.2369
▁소재지	-11.237
상이	-11.2373
▁입지	-11.2379
▁프로세서	-11.238
사령관	-11.2382
▁마케도니아	-11.2383
▁첫번째	-11.2383
ata	-11.2383
사진	-11.2384
▁참전	-11.2385
▁보지	-11.2388
▁사쿠라	-11.2388
▁by	-11.2388
▁이내	-11.2388
스톤	-11.2391
퀴	-11.2395
AI	-11.2396
▁우주선	-11.2399
▁스타디움	-11.24
분은	-11.2403
▁리가	-11.2404
스에서	-11.2407
▁급격ᄒ	-11.241
▁동전	-11.2414
▁러시아어	-11.2414
만화	-11.2414
▁받으며	-11.2419
▁대군	-11.2421
▁쳐	-11.2421
더라도	-11.2424
▁억제	-11.2424
150	-11.2429
했는지	-11.243
▁냈다	-11.2431
▁세계에	-11.2432
▁약물	-11.2433
싸	-11.2433
▁때문이	-11.2435
,000	-11.2439
▁사우스	-11.2439
▁취지	-11.2439
▁생기는	-11.2439
구역	-11.2439
▁헤이	-11.2443
▁이사회	-11.2444
▁스탈린	-11.2446
▁23:0	-11.2446
基	-11.2449
判	-11.2449
路	-11.2449
▁마천루	-11.2449
美	-11.2449
朝	-11.2449
wikipedia	-11.245
▁감사드립니다	-11.245
的	-11.245
▁오리콘	-11.245
▁설탕	-11.245
▁유닛	-11.2451
▁마쓰다이라	-11.2451
작전	-11.2453
▁현종	-11.2455
▁자세히	-11.2456
▁거느리고	-11.2456
▁라오스	-11.2457
▁우익	-11.2457
▁언론인	-11.2458
▁아이피	-11.2458
▁이르고	-11.246
▁그래프	-11.246
▁유언	-11.246
인가요	-11.246
▁마찰	-11.2461
있던	-11.2461
▁눌러	-11.2462
▁댄스	-11.2463
El	-11.2464
▁반환	-11.2465
▁탐사	-11.2465
▁주립	-11.2466
▁구입	-11.2466
▁친일파	-11.2466
▁랩	-11.2467
▁품종	-11.2468
▁이전으로	-11.2472
홈런	-11.2472
▁받아들여	-11.2472
▁재즈	-11.2473
▁순천	-11.2474
▁합작	-11.2474
▁가르침	-11.2475
▁내부에	-11.2478
소를	-11.2478
매치	-11.2483
▁발전에	-11.2484
뤼	-11.2485
▁밝히	-11.2485
에너지	-11.2485
▁북위	-11.2486
▁써서	-11.2487
▁1926	-11.2488
띠	-11.2489
▁투구	-11.249
▁전임	-11.2492
▁입성	-11.2493
▁의미에서	-11.2493
당한	-11.2497
▁이반	-11.2499
▁승부	-11.2499
▁지향	-11.25
▁머	-11.25
▁트럭	-11.2503
▁프레	-11.2506
넨	-11.2508
▁길게	-11.2509
짜리	-11.251
여자고등학교	-11.2511
기타	-11.2513
▁관리자가	-11.2514
▁등장했다	-11.2514
pt	-11.2515
중인	-11.2515
OR	-11.2515
듯이	-11.2518
▁참가하고	-11.252
▁쇼군	-11.2521
2005	-11.2522
▁있	-11.2525
▁삼각형	-11.2526
▁02:5	-11.2526
그라	-11.2527
165	-11.2528
▁이온	-11.253
려면	-11.2531
▁번뇌	-11.2532
▁운명	-11.2534
▁야기	-11.2535
▁1895	-11.2535
ᆼ크	-11.2539
고속	-11.254
▁증상	-11.254
▁아랍어	-11.254
ous	-11.2544
▁현금	-11.2544
AN	-11.2545
치아	-11.2547
▁정통	-11.2547
▁평소	-11.2548
oo	-11.2549
▁가담	-11.2552
▁김성	-11.2556
▁관념	-11.2558
▁김종	-11.2558
않다고	-11.2559
▁음성	-11.256
▁유수	-11.256
용어는	-11.2561
▁춤	-11.2562
리크	-11.2564
▁노선이	-11.2564
▁성공회	-11.2565
콩	-11.2565
▁아니라는	-11.2566
▁중간에	-11.2568
117	-11.2568
IT	-11.2572
▁사안	-11.2574
▁초반에	-11.2577
▁갱신	-11.2578
뜨	-11.2583
▁끈	-11.2587
였기	-11.2588
▁관할한	-11.2589
▁몽	-11.2592
▁활동한	-11.2594
▁당주	-11.2601
됐고	-11.2601
▁전투에	-11.2603
▁입구	-11.2608
단이	-11.2609
▁포맷	-11.2611
▁이론은	-11.2611
강에서	-11.2611
110	-11.2612
▁김영삼	-11.2612
▁미국이	-11.2613
▁눈이	-11.2613
▁개인적	-11.2615
119	-11.2615
▁미치는	-11.2616
▁인정하지	-11.2616
▁분들이	-11.2616
▁SS	-11.2617
▁만일	-11.2618
▁유지하고	-11.2619
ᄂ	-11.262
▁호남	-11.2621
▁아시	-11.2621
ls	-11.2625
ts	-11.2627
▁더블	-11.263
▁곡이	-11.2631
여단	-11.2632
▁통화	-11.2632
▁창건	-11.2634
▁표현하는	-11.2634
ins	-11.2635
▁라틴	-11.2641
▁영광	-11.2645
立	-11.2645
井	-11.2645
크라	-11.2645
治	-11.2645
吉	-11.2645
鎭	-11.2645
▁여동생	-11.2645
眞	-11.2645
花	-11.2645
▁this	-11.2646
▁케이블	-11.2646
▁같네요	-11.2646
▁몰래	-11.2647
▁오디오	-11.2647
▁자꾸	-11.2647
▁삭제신청	-11.2648
▁제외하면	-11.2648
▁금액	-11.2649
▁간섭	-11.265
▁없으나	-11.265
▁명예의	-11.265
▁저택	-11.2651
▁발족	-11.2652
▁발견했다	-11.2653
▁없었기	-11.2653
▁빌딩	-11.2654
▁합계	-11.2656
민주당	-11.2656
▁끝까지	-11.2657
▁정자	-11.2658
중심	-11.2659
▁배제	-11.266
▁부리	-11.2661
▁원본	-11.2662
▁북부에	-11.2663
▁옮겼다	-11.2663
파리	-11.2664
상황	-11.2666
었는데	-11.2666
▁공학	-11.2669
▁잃은	-11.267
▁이하의	-11.2671
▁부품	-11.2672
▁사전에	-11.2672
▁분포한다	-11.2672
▁수상자	-11.2674
▁야간	-11.2674
고려	-11.2678
가수	-11.2678
▁영역에서	-11.2681
▁안되는	-11.2684
플레	-11.2686
^^	-11.269
운수	-11.2691
▁주거	-11.2692
그림	-11.2693
▁신하	-11.2694
회원	-11.2695
▁중심부	-11.2698
▁바둑	-11.27
반응	-11.2702
▁결과에	-11.2702
wa	-11.2703
▁김진	-11.2704
▁참고해	-11.2704
▁영어판	-11.2704
문서를	-11.2707
▁출시한	-11.2707
▁설치되었다	-11.2709
▁특이	-11.2709
사용자토론	-11.271
▁내려가	-11.2713
188	-11.2714
▁탈당	-11.2717
▁해발	-11.2718
▁도와주	-11.2719
▁행정동	-11.272
▁농촌	-11.2721
제품	-11.2722
차량	-11.2723
투자	-11.2729
리와	-11.273
▁주류	-11.2731
라우	-11.2732
▁주자	-11.2733
▁지원한다	-11.2733
Ar	-11.2735
페르	-11.274
거래	-11.274
▁방식이	-11.274
▁먹는	-11.2742
▁산다	-11.2743
1988	-11.2747
▁땅에	-11.2748
▁경비	-11.2749
220	-11.275
복지	-11.275
카르	-11.2756
더군요	-11.2757
▁48	-11.2757
cy	-11.2759
▁맺어	-11.2759
▁아닌가요	-11.2763
▁믿음	-11.2775
▁가속	-11.2776
▁귀족들	-11.2777
▁관리하고	-11.2778
by	-11.2778
tt	-11.2781
노부	-11.2781
ji	-11.2782
▁자유로우	-11.2785
핀	-11.2787
▁제나라	-11.2788
체계	-11.2791
▁블록	-11.2792
▁백성	-11.2795
▁제작사	-11.2801
▁일원으로	-11.2801
덤	-11.2801
▁우리가	-11.2803
사이트	-11.2808
amp	-11.2808
▁동쪽에	-11.2812
▁양주	-11.2816
TO	-11.2816
ᄒ	-11.2818
▁각기	-11.2819
SO	-11.2823
800	-11.2824
위원회가	-11.2825
▁박탈	-11.2825
법으로	-11.2827
ck	-11.2828
▁천안	-11.2832
▁그러면	-11.2833
▁남구	-11.2834
:121	-11.2834
▁테마	-11.2839
▁강원	-11.2844
承	-11.2844
▁신자	-11.2845
▁전세계	-11.2845
黃	-11.2845
제주특별자치도	-11.2845
ᆫ화체육관광부	-11.2845
▁끊임없	-11.2845
▁유네스코	-11.2845
谷	-11.2845
▁풋볼	-11.2845
▁즐겨	-11.2845
▁다음으로	-11.2845
朝鮮	-11.2846
▁궁금합니다	-11.2846
▁프로세스	-11.2846
▁지속적이	-11.2846
▁협박	-11.2847
▁칭찬	-11.2847
▁카라	-11.2847
▁디비전	-11.2847
여자중학교	-11.2847
▁외곽	-11.2848
▁08:2	-11.2848
속도	-11.2849
▁출현	-11.2849
▁문화의	-11.2849
▁허브	-11.2849
▁돌아갔다	-11.2852
▁당해	-11.2852
▁자체를	-11.2852
▁창간	-11.2852
▁your	-11.2853
▁공채	-11.2854
투스	-11.2854
▁겸임	-11.2854
▁황해도	-11.2854
▁묶	-11.2855
▁넣고	-11.2856
▁16:0	-11.2857
▁선거에	-11.2857
▁1913	-11.2857
▁개업	-11.2857
▁넣었다	-11.2858
▁전향	-11.2859
▁여성들	-11.286
▁못했고	-11.2862
함수	-11.2863
보면	-11.2866
AS	-11.2869
▁묘소	-11.2872
▁용량	-11.2872
▁설명하는	-11.2872
▁철저하	-11.2872
▁확실한	-11.2874
▁열린다	-11.2875
▁08:3	-11.2876
▁없었더	-11.2876
Lo	-11.2878
▁노동자들	-11.2879
▁자유주의	-11.288
▁역사에	-11.2881
▁상소	-11.2883
▁텍스트	-11.2884
▁대원	-11.2885
웃	-11.2886
부분	-11.2886
▁이후부터	-11.2886
▁위험한	-11.2888
모노	-11.289
▁명사	-11.2891
▁펼쳤	-11.2892
▁목적은	-11.2894
2001	-11.2896
▁작고	-11.2897
▁관객	-11.2898
▁중계	-11.29
tra	-11.2903
ner	-11.2906
아라	-11.2907
▁왕족	-11.2907
▁시작해	-11.2908
▁규모로	-11.291
ps	-11.2915
▁의정부	-11.2915
▁시작된다	-11.2915
ᆫ지	-11.2915
▁진리	-11.2916
▁롱	-11.2917
▁남쪽에	-11.2918
▁혼동	-11.292
▁설비	-11.2922
▁김구	-11.2923
▁마세요	-11.2924
▁참여하고	-11.2924
▁환경에서	-11.2926
법과	-11.2926
▁스키	-11.293
ure	-11.2931
전이	-11.2936
▁해임	-11.2936
ov	-11.2937
▁후보에	-11.2937
▁02:4	-11.2938
▁밤에	-11.294
▁교구	-11.2943
하셔서	-11.2944
▁프랑스에서	-11.2944
▁틀이	-11.2948
SP	-11.2949
팡	-11.2951
까지도	-11.2952
ris	-11.2954
▁것에서	-11.2954
▁서인	-11.2958
age	-11.2958
▁NHK	-11.2958
ag	-11.2965
▁효과가	-11.2966
▁역학	-11.2967
▁시즌에서	-11.2968
▁조류	-11.2974
▁프리드리히	-11.2976
▁광주광역시	-11.2976
▁부통령	-11.2976
▁02:2	-11.298
▁원주	-11.2981
Qu	-11.2987
▁김동	-11.2987
번에	-11.2988
기계	-11.2989
조각	-11.2993
간이	-11.2993
▁여단	-11.2997
레아	-11.3001
개인	-11.3008
단으로	-11.3014
▁피신	-11.3015
▁수학자	-11.3016
ᄄ	-11.3018
▁관해	-11.3022
▁기록하고	-11.3026
▁He	-11.3028
▁용산	-11.3029
문이	-11.3032
▁경남	-11.3033
▁친정	-11.3033
업체	-11.3035
▁과학자	-11.3038
▁싱글로	-11.3039
에르	-11.3039
계를	-11.3041
int	-11.3042
▁과정에	-11.3045
▁장려	-11.3047
작품	-11.3047
뷔	-11.3047
在	-11.3049
▁노부	-11.3049
下	-11.3049
市	-11.3049
重	-11.3049
像	-11.3049
土	-11.3049
景	-11.3049
臺	-11.3049
▁베네치아	-11.3049
▁해병대	-11.305
▁잊지	-11.305
▁대서양	-11.305
퍼센트	-11.305
▁규슈	-11.305
▁주말	-11.3051
▁갤럭시	-11.3051
구간	-11.3051
▁도메인	-11.3052
시험	-11.3052
▁세워졌다	-11.3052
인들에게	-11.3054
▁중국인	-11.3054
▁국내외	-11.3055
▁호평	-11.3055
▁섭정	-11.3055
▁거둔	-11.3056
▁나타낼	-11.3057
▁일요일	-11.3057
we	-11.3057
▁불리기도	-11.3058
▁반도체	-11.3058
▁두산	-11.3061
▁하락	-11.3063
말로	-11.3063
었으며	-11.3063
▁적색	-11.3064
▁열려	-11.3065
▁생겼다	-11.3066
▁반격	-11.3069
▁일본과	-11.307
준다	-11.307
▁사직	-11.3071
▁벌였다	-11.3071
▁말고	-11.3072
ns	-11.3072
▁코스	-11.308
▁존경	-11.308
▁표현은	-11.308
▁발생할	-11.3082
▁상영	-11.3082
▁입문	-11.3083
▁한국에	-11.3083
▁경력을	-11.3083
▁개교	-11.3084
후보	-11.3084
▁제목을	-11.3087
▁고체	-11.3087
ive	-11.3088
IN	-11.3091
▁전인	-11.3091
▁궁정	-11.3091
▁덴	-11.3092
▁고가	-11.3093
▁산성	-11.3093
▁모델이	-11.3095
▁지방에	-11.3095
▁반해	-11.3095
▁차이로	-11.3096
▁알지	-11.3101
▁인정받아	-11.3101
ᆨ은	-11.3102
▁일어나고	-11.3102
▁02:3	-11.3103
▁사라져	-11.3103
▁구매	-11.3104
▁페리	-11.3104
▁어디	-11.3105
따	-11.3109
▁안타	-11.3111
▁쪽으로	-11.3113
Min	-11.3114
Be	-11.3114
학사	-11.3115
▁조종	-11.3118
yo	-11.312
▁표면에	-11.312
▁페르	-11.3127
▁고양	-11.3128
▁분야에	-11.3129
▁달라	-11.3129
전대	-11.313
헤르	-11.313
짐	-11.3132
생물	-11.3132
▁통칭	-11.3133
▁완화	-11.3137
▁단정	-11.3139
기획	-11.3139
색이	-11.3141
▁합동	-11.3143
나마	-11.3144
▁부분에서	-11.3147
▁바깥	-11.3148
▁열정	-11.3149
▁계수	-11.315
▁노출	-11.3151
▁지역과	-11.3151
▁사람과	-11.3155
▁이른	-11.3155
▁비판이	-11.3156
▁진군	-11.3157
▁살펴보	-11.3159
천만	-11.3161
▁북구	-11.3161
ᆫ더	-11.3166
▁세상에	-11.3166
▁각자	-11.3167
짱	-11.3167
시와	-11.3168
▁추대	-11.3169
▁구조로	-11.3169
▁전제	-11.3171
▁타워	-11.3172
▁기름	-11.3177
▁스페인어	-11.3178
Da	-11.3179
▁re	-11.3181
ity	-11.3182
▁비즈니스	-11.3183
▁금성	-11.3185
▁바퀴	-11.3187
체계를	-11.3188
▁드래프트	-11.3189
등에	-11.3189
밴드	-11.3189
formula	-11.319
MI	-11.3191
▁되돌리	-11.3193
▁공적	-11.3197
Al	-11.3198
질이	-11.3201
▁스페셜	-11.3203
▁의병	-11.3203
▁고위	-11.3203
▁13:0	-11.3204
▁참고하	-11.3212
▁적고	-11.3214
▁발탁	-11.3215
산초등학교	-11.3218
▁홍수	-11.3218
체육	-11.322
▁가능하며	-11.3224
▁언급한	-11.3225
way	-11.3227
▁ᄌ	-11.3231
▁지목	-11.3234
▁포로	-11.3237
원과	-11.3238
122	-11.3239
▁까	-11.3239
▁영화에	-11.324
▁통로	-11.3241
형태	-11.3241
▁노비	-11.3243
▁덧붙여	-11.3243
트는	-11.3248
▁Q	-11.3249
▁지침에	-11.3252
▁파리에서	-11.3252
jin	-11.3254
▁지었다	-11.3254
▁아이디	-11.3255
六	-11.3258
英	-11.3258
左	-11.3258
自	-11.3258
式	-11.3258
▁가깝다	-11.3258
▁샌프란시스코	-11.3258
▁에콰도르	-11.3258
福	-11.3258
▁아홉	-11.3258
▁캐스팅	-11.3258
삼국유사	-11.3258
常	-11.3258
者	-11.3258
▁청와대	-11.3258
▁토마스	-11.3259
▁공략	-11.3259
▁간단히	-11.326
▁식별	-11.3261
▁공의회	-11.3261
▁무인	-11.3262
▁친척	-11.3262
▁알렸다	-11.3263
▁영혼	-11.3263
▁산화	-11.3264
▁서식하는	-11.3265
▁확산	-11.3266
▁것인가	-11.3268
▁출산	-11.3268
▁머신	-11.3268
▁그렇기	-11.3269
▁한쪽	-11.327
▁고려대학교	-11.3271
평가	-11.3272
주를	-11.3273
▁뿐이다	-11.3273
▁해리	-11.3275
ah	-11.3279
175	-11.3281
바흐	-11.3281
▁끝나고	-11.3281
▁아레나	-11.3284
▁실체	-11.3285
▁불안	-11.3285
사무소	-11.3286
▁전통적으로	-11.3286
▁포격	-11.3287
▁방영되었다	-11.3287
▁가질	-11.3288
▁서열	-11.3288
0%	-11.329
종을	-11.329
▁잇	-11.3291
▁1500	-11.3292
▁혜성	-11.3293
▁입원	-11.3293
▁나선	-11.3296
▁들어간다	-11.3297
▁잡혀	-11.3301
▁넣는	-11.3301
하였을	-11.3303
▁동반	-11.3303
▁워	-11.3305
겁니다	-11.3305
변화	-11.3308
▁접하고	-11.3308
▁판매량	-11.3311
▁껍질	-11.3311
▁평생	-11.3314
▁놀	-11.3315
▁게임이	-11.3315
▁특징은	-11.3319
▁일반화	-11.3319
gi	-11.332
▁반론	-11.3321
▁바닥	-11.3324
▁46	-11.3325
▁진공	-11.3331
▁알찬	-11.3331
▁역이	-11.3332
▁예언	-11.3333
▁지역에서는	-11.3333
▁펴	-11.3334
▁고민	-11.3335
슬러	-11.3335
▁먹	-11.3336
▁중앙에	-11.3338
▁부과	-11.3341
▁사고가	-11.3341
▁욕	-11.3341
BA	-11.3342
동과	-11.3342
우주	-11.3346
▁입대	-11.3347
▁인정하고	-11.3348
▁새벽	-11.335
간다	-11.3351
▁DJ	-11.3351
▁자격으로	-11.3353
▁고안	-11.3354
▁인근에	-11.3358
▁사랑방	-11.3359
ler	-11.3362
▁부서	-11.3363
호와	-11.3366
현의	-11.3367
문입니다	-11.3368
겠다는	-11.337
ite	-11.337
팀이	-11.337
헤이	-11.337
▁로그	-11.3375
▁세인트	-11.3375
▁교향곡	-11.3376
▁군부	-11.3376
An	-11.3376
네르	-11.3377
po	-11.3379
▁공화당	-11.3382
▁식사	-11.3382
▁백성들	-11.3384
Sp	-11.3388
▁신임	-11.3388
▁부도	-11.3394
▁끝나	-11.3395
▁히로	-11.3396
0°	-11.3399
론을	-11.34
▁나쁜	-11.3401
▁과도하	-11.3403
문학상	-11.3406
▁게임에서	-11.3408
정원	-11.341
218	-11.3413
▁기록된	-11.3417
▁부문에	-11.3418
▁건물이	-11.3418
전투	-11.3419
▁수반	-11.342
천명	-11.342
▁개막	-11.342
▁07:0	-11.342
▁그랜드	-11.3421
박쥐	-11.3423
민주	-11.3424
있으며	-11.3427
속도로	-11.3427
▁적지	-11.3428
▁언덕	-11.3429
▁전투는	-11.3429
퉁	-11.3432
▁각지	-11.3432
▁북쪽에	-11.3435
ᇂ	-11.3435
▁선수들이	-11.3436
▁원자로	-11.3438
▁인물들	-11.3438
▁기념물	-11.3439
▁환상	-11.3439
▁포함해	-11.3441
▁일어날	-11.3442
꼬	-11.3442
정사	-11.3447
▁학교에서	-11.3448
잎	-11.3449
특수	-11.3452
클리	-11.346
사라	-11.3461
협력	-11.3463
콤	-11.3463
▁퍼져	-11.3464
▁환영	-11.3466
로프	-11.3466
▁직전에	-11.3468
ec	-11.347
▁배신	-11.347
▁업데이트	-11.3471
▁힘입어	-11.3471
壽	-11.3471
▁협주곡	-11.3471
▁송시열	-11.3471
齋	-11.3471
▁거슬러	-11.3471
▁맞습니다	-11.3471
▁기타리스트	-11.3472
▁짐작	-11.3472
▁조금씩	-11.3472
ᆼ트페테르부르크	-11.3472
시카	-11.3472
천리	-11.3473
▁탈환	-11.3473
▁따온	-11.3474
▁주파수	-11.3475
▁전념	-11.3475
▁케이	-11.3475
tor	-11.3476
▁얼음	-11.3476
▁때문이었다	-11.3478
▁사칭	-11.3478
▁서일본	-11.3479
▁격렬하	-11.348
▁알려지지	-11.3482
▁불가능하다	-11.3483
▁41	-11.3483
감이	-11.3483
▁택시	-11.3483
▁법령	-11.3483
▁동지	-11.3484
▁시작되어	-11.3484
▁얻지	-11.3486
▁부처	-11.3489
▁나눠	-11.349
▁분비	-11.3493
▁5000	-11.3494
아래	-11.3495
▁대안	-11.3496
▁선임	-11.3496
▁지각	-11.3497
▁정해진	-11.3497
▁자문	-11.3499
지어	-11.3499
수도	-11.35
▁창원시	-11.3502
▁선수이자	-11.3504
▁파생	-11.3504
▁전진	-11.3506
▁후방	-11.3508
ik	-11.3508
▁박쥐	-11.3509
▁신흥	-11.3509
ᄐ	-11.3511
▁분지	-11.3512
체로	-11.3513
▁자사	-11.3514
▁광해군	-11.3516
▁가족들	-11.3517
▁대거	-11.3517
▁하사	-11.3518
▁전압	-11.3518
곡면	-11.352
연패	-11.352
▁삭제될	-11.3522
▁규범	-11.3523
118	-11.3523
고종	-11.3524
▁드림	-11.3524
플레이	-11.3525
za	-11.3525
▁규정하고	-11.3529
▁명시	-11.3531
얀	-11.3535
▁황후	-11.3536
▁급행	-11.3538
▁유성	-11.3539
2019	-11.3543
소가	-11.3545
이하	-11.3545
▁하차	-11.3545
어가	-11.3546
▁않았습니다	-11.3547
▁때도	-11.3549
▁의존하	-11.355
▁지칭	-11.3551
▁Ro	-11.3552
▁천문학	-11.3552
▁향한	-11.3552
▁선교사	-11.3553
공신	-11.3554
▁활약한	-11.3555
▁들었다	-11.3555
▁방위	-11.3556
▁장인	-11.3562
▁생각할	-11.3564
푸르	-11.3565
공학	-11.3565
▁자신에게	-11.3565
▁프랑스는	-11.3566
연승	-11.3566
구와	-11.3567
▁원문	-11.3568
▁흙	-11.3571
▁움직이는	-11.3573
▁제국은	-11.3575
결정	-11.3579
able	-11.358
사회의	-11.358
▁계정이	-11.358
ana	-11.358
▁은메달을	-11.3581
▁오가	-11.3586
▁이전까지	-11.3586
모가	-11.3588
▁멤버로	-11.3594
마쳤다	-11.3595
▁수석	-11.3598
고리	-11.3602
▁무엇이	-11.3602
155	-11.3602
▁구름	-11.3604
서원	-11.3606
▁700	-11.3608
▁우정	-11.361
RT	-11.3612
▁군수	-11.3613
▁시청률	-11.3613
ᅲ	-11.3614
▁작성된	-11.3614
°	-11.3618
▁차기	-11.3618
▁오는	-11.362
▁체포되어	-11.3622
곡이	-11.3626
정은	-11.3626
▁교장	-11.3629
▁활동은	-11.363
▁생기	-11.3631
▁17:3	-11.3633
족이	-11.3635
▁장사	-11.3641
▁자라	-11.3641
▁군사적	-11.3644
900	-11.3644
캠퍼스	-11.3649
지지	-11.3652
▁새겨	-11.3652
▁만들어져	-11.3655
생산	-11.3657
_12	-11.3657
이든	-11.3658
▁일본이	-11.3659
▁보내는	-11.366
▁점성술	-11.366
힘	-11.3662
▁조건으로	-11.3663
▁멈추	-11.3664
▁선생	-11.3664
▁발레	-11.3665
비는	-11.3665
▁펼치	-11.3666
내의	-11.3668
▁실질적	-11.3669
시고	-11.367
▁스트리트	-11.3672
MC	-11.3673
자원	-11.3675
▁Z	-11.3676
▁국가대표	-11.3677
▁물의	-11.3679
▁사고로	-11.368
▁not	-11.368
ay	-11.3681
▁적을	-11.3682
뮤	-11.3683
▁거점	-11.3684
▁추구	-11.3686
順	-11.3688
廣	-11.3688
議	-11.3688
作	-11.3688
戰	-11.3688
▁탤런트	-11.3688
別	-11.3688
敬	-11.3688
플레이스테이션	-11.3688
度	-11.3688
▁위키피디아	-11.3688
命	-11.3688
身	-11.3688
▁언	-11.3688
▁생략	-11.3689
▁하워드	-11.3689
▁삼성전자	-11.3689
▁히어로즈	-11.369
▁퇴각	-11.369
▁이메일	-11.3692
▁특유	-11.3693
▁계절	-11.3693
하리	-11.3693
▁통증	-11.3694
앨범	-11.3694
▁종래	-11.3694
▁사용하며	-11.3695
▁올바른	-11.3696
부원군	-11.3696
▁유래한	-11.3697
▁타이틀곡	-11.3697
▁원나라	-11.3698
▁리듬	-11.3698
▁징계	-11.3698
▁서식한다	-11.3698
▁십자군	-11.37
▁바꾸었다	-11.37
▁이루어지고	-11.37
▁명확	-11.3701
▁보여주고	-11.3701
▁법정동	-11.3703
1989	-11.3703
▁흔한	-11.3704
가지게	-11.3705
▁검은색	-11.3705
▁냉	-11.3705
▁판본	-11.3705
▁응원	-11.3705
▁시작했으며	-11.3706
▁중국과	-11.3707
이었기	-11.3707
▁바오로	-11.3709
▁교황청	-11.371
▁누르고	-11.3711
▁변화에	-11.3711
하우스	-11.3712
서비스	-11.3713
표를	-11.3713
▁위와	-11.3713
1999	-11.3713
▁기종	-11.3714
스턴	-11.3714
1995	-11.3714
▁구사	-11.3715
▁관하여	-11.3718
느냐	-11.3722
마스	-11.3726
시까지	-11.3726
파이	-11.3726
▁둘러싼	-11.3727
▁크로	-11.3728
올라	-11.3731
부르	-11.3731
▁지어진	-11.3731
NO	-11.3732
탱	-11.3732
모든	-11.3732
▁스테이지	-11.3732
sc	-11.3734
▁서경	-11.3734
▁힘든	-11.3735
▁학계	-11.3736
▁쌓은	-11.3736
▁가능성을	-11.3736
▁먼	-11.3739
▁호세	-11.374
키타	-11.3741
▁연합국	-11.3742
Mo	-11.3742
▁보강	-11.3742
▁지표	-11.3743
▁항일	-11.3744
▁올라온	-11.3744
화물	-11.3747
▁공업	-11.3748
▁뼈	-11.3748
▁검증	-11.3749
▁이뤄지	-11.3749
사이드	-11.3749
tic	-11.3751
▁왕위에	-11.3752
▁지휘자	-11.3753
▁다르	-11.3754
▁상류	-11.3754
꼬리	-11.3756
▁나오고	-11.3757
▁지도자들	-11.3757
집행	-11.3757
▁미술관	-11.3759
▁심사	-11.376
자이다	-11.376
uck	-11.3763
코리아	-11.3763
▁독재	-11.3764
정을	-11.3768
▁리눅스	-11.3771
국사	-11.3772
▁접수	-11.3773
▁협약	-11.3774
▁민간인	-11.3774
금융	-11.3775
진이	-11.3776
시부터	-11.3778
빗	-11.3779
▁요청에	-11.3779
▁이식	-11.3781
번이나	-11.3783
편이	-11.3783
▁되돌려졌	-11.3783
▁생겨	-11.3784
영국	-11.3787
수단	-11.3787
낙	-11.3788
▁융합	-11.379
▁구동	-11.379
▁주어졌다	-11.3791
기자	-11.3791
스테이	-11.3791
▁열고	-11.38
삼성	-11.38
제작	-11.3802
▁이리	-11.3803
▁진출한	-11.3803
▁득표	-11.3803
▁무력	-11.3807
▁존재하고	-11.3807
▁인재	-11.3812
콜	-11.3817
브로	-11.3818
▁관리하는	-11.3818
▁아래로	-11.3819
Vi	-11.382
▁상무	-11.3824
이처럼	-11.3825
▁연도	-11.3827
길이	-11.3828
동이	-11.3828
년대까지	-11.3828
▁세대	-11.3829
▁국립국어원	-11.383
평화	-11.3833
▁애플리케이션	-11.3836
▁최소한	-11.3837
룽	-11.3838
▁특급	-11.3841
국이	-11.3841
▁요금	-11.3842
▁놓은	-11.3844
▁조항	-11.3845
▁후계자	-11.3846
▁동남아시아	-11.3846
▁않겠다	-11.3847
권에	-11.3848
포를	-11.385
반도	-11.3853
▁이래로	-11.3855
▁시기는	-11.3855
태평양	-11.3856
▁분기	-11.3857
ju	-11.386
▁무관	-11.386
▁브라이언	-11.3861
▁미쓰	-11.3863
▁방법에	-11.3864
▁공리	-11.3865
구는	-11.3871
▁제외하고는	-11.3871
▁University	-11.3871
▁유력	-11.3873
못	-11.3874
비용	-11.3878
▁관할하	-11.3879
▁정리한	-11.3881
▁수호	-11.3883
ical	-11.3884
교수	-11.3884
▁고시	-11.3885
▁딱	-11.3886
투어	-11.3886
▁당했다	-11.3886
대구	-11.3887
▁면역	-11.3888
IM	-11.389
▁폭풍	-11.3891
▁유일	-11.3891
로우	-11.3891
▁안나	-11.3892
껏	-11.3896
▁풍경	-11.3896
▁고교	-11.3897
전의	-11.3897
흑	-11.3898
IP	-11.39
▁치렀	-11.39
토시	-11.3901
He	-11.3901
▁CO	-11.3901
로서는	-11.3901
첨	-11.3903
▁비서	-11.3904
ᆱ	-11.3904
147	-11.3904
▁말하면	-11.3904
▁고양시	-11.3904
科	-11.3909
祖	-11.391
外	-11.391
申	-11.391
»	-11.391
▁바그너	-11.391
▁바티칸	-11.391
▁쌍둥이	-11.391
▁얇	-11.391
印	-11.391
▁걱정	-11.391
▁시칠리아	-11.391
▁소설가	-11.391
IS	-11.3911
▁듀오	-11.3911
▁플라	-11.3911
▁부수	-11.3911
▁레이블	-11.3912
노트	-11.3912
▁헌법재판소	-11.3913
그리	-11.3913
▁맡았으며	-11.3915
▁기습	-11.3915
▁십	-11.3915
블루	-11.3916
▁^^	-11.3917
▁그렸다	-11.3917
▁차원에서	-11.3918
▁감독과	-11.392
▁부패	-11.3921
VA	-11.3922
▁오고	-11.3923
▁높고	-11.3923
▁동일하다	-11.3923
▁편곡	-11.3924
▁가짜	-11.3925
▁편입되었다	-11.3925
▁전장	-11.3926
천여	-11.3926
▁운송	-11.3928
주시길	-11.3928
▁보건	-11.3928
▁진행되는	-11.3929
▁마친	-11.3931
▁빠진	-11.3931
▁톱	-11.3935
작용	-11.3937
▁그쳤다	-11.3937
▁막대한	-11.394
▁내내	-11.3941
▁밝히고	-11.3942
▁투쟁	-11.3943
▁김상	-11.3945
개씩	-11.3946
계는	-11.3946
경찰	-11.3946
▁자치체	-11.3948
▁표지	-11.3948
▁미치	-11.3949
▁번식	-11.3949
▁둘레	-11.3951
▁연결된	-11.3951
그리스	-11.3954
▁띄	-11.3954
▁해역	-11.3955
ther	-11.3955
▁무렵에	-11.3956
▁장애인	-11.3956
▁열도	-11.3956
티나	-11.3957
▁역전	-11.3958
팩	-11.396
▁쇠	-11.3961
▁바람	-11.3963
1990	-11.3963
▁샘	-11.3963
▁No	-11.3964
II	-11.3966
▁개칭	-11.3966
dr	-11.3967
명칭	-11.3967
나눌	-11.3967
▁태자	-11.397
통합	-11.397
론에	-11.3971
조합	-11.3972
▁출입구	-11.3972
▁떼	-11.3974
기지	-11.3975
▁출전했다	-11.3976
▁폐기	-11.3976
▁폐쇄	-11.3976
▁전체가	-11.3977
TE	-11.3977
▁소통	-11.3977
▁정렬	-11.3978
▁3000	-11.3979
▁정무	-11.3979
▁진출에	-11.398
▁죽어	-11.3982
▁고분	-11.3983
당해	-11.3983
▁순으로	-11.3983
▁어렵	-11.3985
ᄏ	-11.3987
▁김수	-11.3987
▁07:4	-11.3988
▁자질	-11.3988
음을	-11.399
리의	-11.399
깨	-11.399
▁후임	-11.3991
▁회부	-11.3993
▁곡이다	-11.3994
사업을	-11.4001
▁연산자	-11.4002
독립	-11.4003
정당	-11.4004
▁회로	-11.4004
프트	-11.4006
▁안드로이드	-11.4014
▁성남	-11.4015
▁바탕	-11.4016
카리	-11.4017
▁전에는	-11.4017
cho	-11.4018
▁구로	-11.4019
▁채로	-11.4021
▁제작자	-11.4022
선조	-11.4023
▁지바	-11.4023
▁출시된	-11.4029
▁03:1	-11.4029
▁몰려	-11.403
끄	-11.4031
▁좌파	-11.4031
생명	-11.4034
▁도움으로	-11.4037
타워	-11.4037
법인	-11.4038
키는	-11.4038
▁ᄃ	-11.4039
▁지수	-11.4041
세종	-11.4043
▁국무총리	-11.4044
▁경북	-11.4046
▁전작	-11.4046
▁묶어	-11.4047
▁중립적	-11.4047
▁돔	-11.4048
▁델	-11.4051
▁대왕	-11.4051
버트	-11.4051
▁부제	-11.4052
▁파장	-11.4052
▁구조는	-11.4055
쿠라	-11.4057
비행	-11.4057
▁신전	-11.4058
▁떨어지는	-11.4062
▁댐	-11.4063
▁걷	-11.4064
텍	-11.4065
▁코치로	-11.4065
▁부천	-11.4068
UN	-11.4069
버전	-11.4069
▁막아	-11.407
끼리	-11.407
▁심리	-11.4074
▁지나면	-11.4075
▁문제점	-11.4076
▁묵	-11.4076
▁웨일스	-11.4077
▁보전	-11.4078
도어	-11.4081
▁후안	-11.4083
▁자회사	-11.4086
▁협조	-11.4088
ᆸ니까	-11.4089
시노	-11.4089
▁코르	-11.4091
178	-11.4094
▁빚	-11.4094
▁지분	-11.4096
▁선정한	-11.4099
▁만드	-11.4099
보전	-11.4101
▁마케팅	-11.4104
▁시장에서	-11.4106
▁봉사	-11.4108
▁결정적	-11.4109
Bo	-11.4111
▁진도	-11.4112
▁브로	-11.4115
기에는	-11.4115
▁분리되어	-11.4119
▁시체	-11.4119
▁지키	-11.412
▁읽는	-11.4121
▁마음이	-11.4121
분을	-11.4123
▁저하	-11.4126
▁가르쳐	-11.4127
흡	-11.4131
▁들어와	-11.4132
▁인디	-11.4134
점이다	-11.4134
▁평행	-11.4135
▁110	-11.4136
女	-11.4137
萬	-11.4137
≫	-11.4137
▁많습니다	-11.4137
▁슬로베니아	-11.4137
▁어두운	-11.4137
▁울산광역시	-11.4137
風	-11.4137
▁디스플레이	-11.4138
流	-11.4138
▁윤보선	-11.4138
国	-11.4138
▁루트비히	-11.4138
分	-11.4138
▁지정된	-11.4138
CA	-11.4138
▁CPU	-11.4138
▁오버	-11.4138
▁상단에	-11.4139
▁역까지	-11.4139
▁노란색	-11.414
▁측근	-11.414
▁전반적	-11.414
▁지냈으며	-11.414
▁깃발	-11.414
▁스피드	-11.4141
▁근교	-11.4142
▁품질	-11.4143
▁총칭	-11.4144
▁코믹스	-11.4145
108	-11.4147
▁있었을	-11.4147
님과	-11.4147
▁구장	-11.4148
▁불편	-11.415
▁연령	-11.4152
치를	-11.4152
▁1902	-11.4155
▁나섰다	-11.4155
▁해소	-11.4155
▁포스트	-11.4156
▁흔적	-11.4156
▁뚜렷한	-11.4159
▁부디	-11.4159
▁남쪽으로는	-11.416
▁드문	-11.416
▁무죄	-11.4162
보기	-11.4162
▁세워져	-11.4162
▁화살	-11.4163
▁청원	-11.4165
▁출구	-11.4167
▁성주	-11.4167
▁데리	-11.4167
▁크림	-11.4167
▁초연	-11.4168
120	-11.4169
▁노스	-11.4169
▁부분적으로	-11.4169
▁말하며	-11.417
앵	-11.417
▁사라	-11.4172
▁마이너	-11.4172
▁05:1	-11.4172
▁03:4	-11.4176
▁던져	-11.4176
▁부르고	-11.4176
▁흉	-11.4178
▁되었다고	-11.418
▁주시	-11.418
▁히데	-11.418
▁개국	-11.418
▁크리스마스	-11.4182
▁자전거	-11.4183
수준	-11.4183
▁개최되었다	-11.4183
▁일부로	-11.4183
▁추가해	-11.4183
▁불가	-11.4184
▁국민들	-11.4184
▁블루스	-11.4192
ft	-11.4192
청사	-11.4193
146	-11.4194
줘	-11.4195
▁일방적	-11.4197
▁증기	-11.4197
▁수령	-11.4197
▁어디서	-11.4202
▁되었습니다	-11.4202
효과	-11.4203
룩	-11.4203
▁붙은	-11.4207
수리	-11.4207
SV	-11.4208
센트	-11.4209
▁면에서	-11.4211
포스	-11.4213
▁입주	-11.4215
▁견	-11.4218
▁전적	-11.4218
▁부흥	-11.4221
정으로	-11.4221
▁간에	-11.4223
산군	-11.4223
▁보완	-11.4225
▁굽	-11.4225
zi	-11.4228
▁이세	-11.4228
슈퍼	-11.423
위원회는	-11.423
Di	-11.4231
ᆻ어요	-11.4231
1986	-11.4234
ᆫ티	-11.4234
▁펜	-11.4237
▁강과	-11.4237
▁자바	-11.4238
▁보석	-11.4239
2018	-11.424
▁만난	-11.424
노래	-11.4241
▁알바	-11.4241
▁속으로	-11.4244
▁색깔	-11.4245
▁몸이	-11.4248
▁밑에서	-11.4249
▁석사	-11.4249
넌	-11.425
▁소니	-11.4253
답	-11.4258
▁공국	-11.4261
등으로	-11.4262
▁사신	-11.4262
▁03:3	-11.4263
▁밝히는	-11.4265
▁달라지	-11.4266
uk	-11.4267
▁필드	-11.4268
101	-11.4269
▁메달	-11.4269
▁예하	-11.427
▁계열사	-11.427
▁사서	-11.4271
▁갓	-11.4272
▁등등	-11.4272
▁독일인	-11.4273
▁오지	-11.4274
▁개념으로	-11.4278
▁학교에	-11.4279
▁화해	-11.4279
▁좌석	-11.428
▁탁	-11.428
▁강행	-11.4287
▁대패	-11.429
▁말라	-11.4291
이브	-11.4291
▁인질	-11.4292
▁다중계정	-11.4296
▁김태	-11.4296
체의	-11.4298
hu	-11.4299
▁입사	-11.4301
▁글로	-11.4302
퍼스	-11.4304
▁그곳	-11.4305
▁인정하	-11.4305
이어서	-11.4306
증권	-11.4312
Ta	-11.4316
▁행정부	-11.4317
한테	-11.4321
▁실망	-11.4324
ᆸ스	-11.4326
▁모델로	-11.4326
▁미국에	-11.4329
▁에스토니아	-11.4329
▁연한	-11.4329
▁전방	-11.433
▁충주	-11.433
인민	-11.4331
▁북극	-11.4331
▁교차	-11.434
▁궁	-11.434
▁시신	-11.434
▁왕복	-11.4341
ae	-11.4342
ach	-11.4348
▁경우에도	-11.435
▁저명성이	-11.435
▁후쿠오카	-11.435
업을	-11.4351
▁해적	-11.4353
ue	-11.4353
▁대표적	-11.4355
FM	-11.4358
회에서	-11.436
▁인형	-11.4362
▁개발된	-11.4364
맥스	-11.4364
상은	-11.4366
쟁	-11.4367
▁압력을	-11.4367
▁밀양	-11.4367
▁모델은	-11.4368
자형	-11.4369
▁22:0	-11.4369
草	-11.437
音	-11.437
修	-11.437
【】【】	-11.437
形	-11.437
秀	-11.437
▁유니폴리	-11.437
姜	-11.437
亭	-11.437
rr	-11.437
▁뮤직비디오	-11.437
▁준보호	-11.4371
▁국립공원	-11.4371
▁캄보디아	-11.4372
▁</	-11.4374
▁추격	-11.4374
▁빨간색	-11.4376
▁맡게	-11.4376
베르크	-11.4377
테스	-11.4377
▁일컫는	-11.438
토끼	-11.4382
▁휴식	-11.4385
선으로	-11.4385
▁그러자	-11.4386
202	-11.4388
▁성숙	-11.439
▁역설	-11.4391
▁기존에	-11.4391
DS	-11.4394
업자	-11.4395
▁시작하는	-11.4396
▁극동	-11.4396
음이	-11.4397
▁제시한	-11.4399
▁민족의	-11.4399
▁되어있다	-11.4399
▁급제	-11.4401
▁진행되고	-11.4401
FF	-11.4403
▁남기	-11.4405
▁금강	-11.4406
▁말씀드리	-11.4406
▁엄마	-11.4406
▁만나게	-11.4407
ina	-11.4408
▁받	-11.4409
▁방문한	-11.4409
▁시집	-11.4411
ix	-11.4412
▁국정	-11.4413
슬로	-11.4413
동으로	-11.4415
▁세이	-11.4415
▁프로레슬링	-11.4415
▁합치	-11.4416
▁겪	-11.4416
▁왕건	-11.4417
▁원자력	-11.4417
▁탓에	-11.4418
130	-11.4419
▁몰리	-11.442
▁효력	-11.442
▁출전한	-11.4422
바트	-11.4423
have	-11.4423
패로	-11.4424
▁엠	-11.4425
▁음원	-11.4426
▁장로	-11.4427
내에서	-11.4427
▁캘리포니아주	-11.4429
관이	-11.443
단에	-11.4431
▁상당수	-11.4435
du	-11.4437
▁수행하는	-11.4438
▁손가락	-11.4438
▁하부	-11.444
ᆫ디	-11.4442
▁팀에	-11.4442
▁찾아볼	-11.4443
차전에서	-11.4445
▁구미	-11.4445
▁메가	-11.4446
ᆯ렌	-11.4451
▁정한	-11.4453
▁정신적	-11.4454
형은	-11.4454
▁기어	-11.4454
▁활동하는	-11.4459
▁새겨져	-11.4462
▁회화	-11.4462
▁삼고	-11.4462
▁인접한	-11.4462
만여	-11.4463
▁만들어서	-11.4465
탐	-11.4466
▁높아	-11.4466
전략	-11.4467
▁폭격	-11.4469
팬	-11.447
▁미분	-11.4471
▁분산	-11.4472
잡지	-11.4472
계정	-11.4476
▁들어간	-11.4476
▁하나이며	-11.4479
▁르네상스	-11.4479
▁※	-11.4479
▁오케스트라	-11.4479
▁아제르바이잔	-11.4479
▁풍자	-11.4479
보존	-11.448
▁각본을	-11.448
▁토성	-11.4482
▁매출	-11.4482
중대	-11.4483
번대	-11.4485
권은	-11.4489
ain	-11.449
▁교전	-11.449
뿐입니다	-11.4495
규칙	-11.4497
▁원고	-11.4497
Ch	-11.45
▁크리	-11.4502
ok	-11.4504
▁부대를	-11.4505
끝	-11.4506
사르	-11.4507
냥	-11.4509
일보	-11.451
▁같은해	-11.4511
▁준주	-11.4511
▁내역	-11.4514
▁대포	-11.4518
공장	-11.4521
건지	-11.4521
▁퍼시픽	-11.4523
▁구체적이	-11.4525
▁별의	-11.4528
상으로는	-11.4532
그리고	-11.4532
▁방송사	-11.4536
즈미	-11.4537
176	-11.4537
신청	-11.4539
▁이토	-11.454
마타	-11.4544
ES	-11.4544
1994	-11.4545
방향	-11.4546
달라고	-11.4547
브리지	-11.4547
▁동인	-11.4547
▁꼬	-11.4549
▁본명	-11.4549
1985	-11.455
▁특집	-11.455
큰	-11.455
▁체육	-11.4551
▁앉아	-11.4554
쿠스	-11.4555
ᆫ테	-11.4556
스를	-11.4559
요청	-11.4559
▁수단으로	-11.4559
미노	-11.4559
므	-11.456
▁기록해	-11.4562
▁유대	-11.4563
▁생물학적	-11.4565
▁더비	-11.4566
▁객체	-11.4566
▁용서	-11.4567
▁국가가	-11.4573
▁난다	-11.4575
부작	-11.4576
▁권한이	-11.4579
▁125	-11.458
che	-11.458
▁광역	-11.4583
▁Be	-11.4583
▁보이게	-11.4583
▁멤버들	-11.4585
▁부시	-11.4585
▁소행성	-11.4587
▁구축함	-11.4588
▁지연	-11.4588
▁법인	-11.4588
편으로	-11.459
카미	-11.459
▁납치	-11.4591
세에게	-11.4593
DI	-11.4595
▁무려	-11.4595
▁서정	-11.4595
▁차지하며	-11.4597
▁대리	-11.4599
▁러브	-11.4599
▁산하에	-11.4599
▁뤼	-11.4601
▁붙이	-11.4601
학기	-11.4602
▁성종	-11.4602
▁비로	-11.4604
ᆨ히	-11.4604
▁붙인	-11.4605
▁게시	-11.4605
일자	-11.4605
▁않을까	-11.4606
▁코너	-11.4606
師	-11.4607
나르	-11.4608
―	-11.4608
合	-11.4608
화와	-11.4608
館	-11.4608
徐	-11.4608
應	-11.4608
▁업그레이드	-11.4608
溪	-11.4608
▁체코슬로바키아	-11.4608
▁패키지	-11.4608
傳	-11.4608
▁스릴러	-11.4608
▁있으시다면	-11.4608
▁테이블	-11.4608
色	-11.4609
▁보스니아	-11.4609
▁올릴	-11.4609
▁IBM	-11.4609
▁찾아내	-11.461
▁거기서	-11.4613
▁도호쿠	-11.4613
▁비슷하게	-11.4615
▁초래하	-11.4615
▁서독	-11.4617
▁드물게	-11.4617
▁증진	-11.4617
▁지어졌다	-11.4618
MS	-11.4618
▁뛰어나	-11.4619
▁실내	-11.4619
▁포털	-11.4619
▁몰락	-11.462
▁16:3	-11.462
▁믿고	-11.462
사업자	-11.4622
▁물에	-11.4623
▁내린	-11.4625
▁경상도	-11.4625
??	-11.4626
▁컵	-11.4626
연합회	-11.4626
년동안	-11.4632
▁우세	-11.4632
▁보복	-11.4633
▁전례	-11.4633
까요	-11.4634
▁휴대	-11.4634
▁얻는다	-11.4635
사나	-11.4636
▁프로리그	-11.4637
▁이탈리아에서	-11.4638
▁생각된다	-11.4638
eo	-11.4638
▁죽였다	-11.4638
▁목조	-11.464
▁주행	-11.4642
▁요원	-11.4644
▁인정받	-11.4646
▁고등	-11.4648
▁올리고	-11.465
지식	-11.465
ary	-11.4651
▁간신	-11.4653
시가	-11.4655
▁모른다	-11.4655
▁작품에	-11.4657
호쿠	-11.466
▁협	-11.466
▁평일	-11.466
▁치열하	-11.4661
▁벽화	-11.4662
▁섬으로	-11.4669
▁공인	-11.467
▁파산	-11.4672
▁필립	-11.4673
▁주관적	-11.4674
라리	-11.4675
▁수습	-11.4676
Ph	-11.4678
_11	-11.4679
▁오다	-11.4679
년대부터	-11.4679
py	-11.4679
ᄅ	-11.4679
됐으며	-11.4682
▁공격수	-11.4682
▁54	-11.4684
▁국보	-11.4684
▁강하다	-11.4687
AA	-11.4689
층이	-11.469
▁결혼했다	-11.4691
라크	-11.4692
▁솔	-11.4696
▁사이트에서	-11.4696
▁후일	-11.4697
ᆨ을	-11.4699
▁그날	-11.47
파는	-11.47
▁하야	-11.4701
▁타운	-11.4701
▁피트	-11.4702
▁장성	-11.4703
▁않아도	-11.4703
맛	-11.4706
▁적절	-11.4706
내는	-11.4707
▁아마도	-11.4708
▁태양계	-11.4708
▁박해	-11.4709
▁출판사	-11.4711
것으로	-11.4712
▁17:5	-11.4712
조정	-11.4712
▁나비	-11.4712
바오	-11.4713
▁진지	-11.4713
▁조이	-11.4714
가며	-11.4714
▁산악	-11.4716
▁구절	-11.4717
▁총회	-11.4719
▁아야	-11.4722
됨으로써	-11.4723
▁정체성	-11.4725
▁일으키는	-11.4727
▁발트	-11.4729
▁마이크	-11.4729
▁가동	-11.4729
▁계획에	-11.4734
구로	-11.4736
▁도요	-11.4739
TC	-11.4741
▁드라이브	-11.4741
▁우승에	-11.4746
De	-11.4747
▁집으로	-11.4748
▁연대기	-11.4748
국으로	-11.4749
▁너	-11.475
▁성공하였다	-11.475
미치	-11.475
▁발해	-11.4751
넬	-11.4753
▁농도	-11.4753
회가	-11.4754
▁일종으로	-11.4754
인으로	-11.476
▁지니	-11.4761
▁결정했다	-11.4762
▁개념이	-11.4762
▁신의	-11.4763
▁장면을	-11.4766
▁힘들	-11.4767
면에서	-11.4767
▁아닐	-11.4768
▁몬스터	-11.4768
▁기상	-11.4769
스틱	-11.4772
▁분화	-11.4773
▁포장	-11.4773
여행	-11.4775
▁곰	-11.4776
▁연속으로	-11.4776
▁어워드	-11.4778
사태	-11.4778
향을	-11.4779
▁생산하는	-11.4781
대학원	-11.4782
派	-11.4783
ens	-11.4784
▁요코	-11.4787
PO	-11.4787
ld	-11.4791
▁노래는	-11.4791
강전	-11.4792
dd	-11.4793
▁한명	-11.4794
ard	-11.4794
▁낳	-11.4794
▁비전	-11.4795
▁보내주	-11.4795
▁거주하는	-11.4796
이었다고	-11.4798
▁누르	-11.4799
▁시가	-11.48
호텔	-11.4802
▁전단	-11.4804
▁생명체	-11.4805
동아	-11.4807
현대	-11.4808
Ba	-11.4816
▁꺾	-11.4817
▁속도가	-11.4817
▁교과서	-11.4817
기여	-11.4821
신을	-11.4822
▁16:5	-11.4824
▁유저	-11.4824
▁선두	-11.4825
▁버전은	-11.4826
▁간격	-11.4829
장과	-11.483
▁상부	-11.4833
1992	-11.4836
▁19:5	-11.4836
▁블라	-11.4839
▁혈액	-11.484
슬리	-11.484
▁급제하여	-11.4841
▁퇴	-11.4842
념	-11.4842
▁변동	-11.4842
▁슬로바키아	-11.4843
▁필수	-11.4844
▁차례로	-11.4846
_17	-11.4846
▁수평	-11.4847
▁끝이	-11.4849
京	-11.4851
▁주장한	-11.4851
淸	-11.4852
詩	-11.4852
International	-11.4852
▁김옥균	-11.4852
遠	-11.4852
黨	-11.4852
▁배터리	-11.4852
頭	-11.4852
▁진심으로	-11.4852
▁리버풀	-11.4852
▁때때로	-11.4852
▁티베트	-11.4852
▁컴백	-11.4852
▁다양성	-11.4852
▁휴스턴	-11.4852
▁냄새	-11.4853
▁나라들	-11.4853
▁단축	-11.4853
▁추정되는	-11.4853
▁KIA	-11.4853
▁뉴턴	-11.4854
▁ᄆ	-11.4854
박스	-11.4854
▁남깁니다	-11.4854
▁어휘	-11.4854
타니	-11.4854
회장	-11.4854
▁Tour	-11.4854
▁두개골	-11.4854
▁규격	-11.4855
▁벌어졌다	-11.4855
▁자체는	-11.4855
▁공로	-11.4856
당의	-11.4858
▁놀라	-11.4858
▁겪었다	-11.4858
▁탑승	-11.4859
▁조지프	-11.4859
//	-11.486
▁거짓말	-11.486
▁참가하는	-11.4861
▁않는다면	-11.4861
▁귀중하	-11.4861
안전	-11.4861
One	-11.4864
▁위헌	-11.4864
▁입체	-11.4865
▁강풍	-11.4869
▁남부에	-11.4869
계와	-11.4869
116	-11.487
▁황족	-11.487
▁맞추	-11.487
▁자리잡고	-11.4871
lin	-11.4872
▁1903	-11.4873
짓	-11.4873
▁아사	-11.4873
소방서	-11.4874
▁프라이	-11.4877
▁기록으로	-11.4879
▁짙은	-11.4879
▁World	-11.4879
▁역임하고	-11.488
▁센서	-11.4881
201	-11.4881
▁객관적인	-11.4883
▁포크	-11.4883
향교	-11.4884
▁형성한다	-11.4885
▁입당	-11.4887
▁회원국	-11.4888
▁난민	-11.4889
▁수신	-11.4889
▁직접적으로	-11.4891
▁경성부	-11.4891
park	-11.4891
▁정하는	-11.4891
▁나올	-11.4891
▁소집	-11.4892
▁취하고	-11.4894
▁주나라	-11.4896
142	-11.4897
▁몸에	-11.4899
▁06:4	-11.4901
▁간부	-11.4901
109	-11.4903
▁성격이	-11.4905
▁기저	-11.4905
▁사격	-11.4906
지점	-11.4906
▁분류된다	-11.4906
Ga	-11.4906
▁무대에	-11.4908
▁Con	-11.4909
▁51	-11.491
레이트	-11.4911
놓고	-11.4911
▁찬	-11.4911
▁아버지와	-11.4912
사카	-11.4912
▁대표적으로	-11.4912
▁아래에서	-11.4912
▁냉각	-11.4913
▁묘역	-11.4913
▁La	-11.4913
▁언급하는	-11.4913
▁여객	-11.4913
▁고니	-11.4914
▁채권	-11.4919
▁15:5	-11.4919
▁커지	-11.4919
▁학자들은	-11.492
▁승자	-11.492
▁마야	-11.4921
▁유체	-11.4921
▁넘어서	-11.4923
▁현행	-11.4925
▁자신과	-11.4925
▁생성한	-11.4926
▁비문	-11.4928
▁만났다	-11.4929
▁이해할	-11.4929
ber	-11.4931
▁장관을	-11.4931
▁유해	-11.4935
▁07:5	-11.4936
악장	-11.4936
박물관에	-11.4937
▁가르치	-11.4937
use	-11.4938
▁참여하는	-11.4938
▁사관	-11.4939
▁넘기	-11.494
IF	-11.494
ᆷ바	-11.4941
▁다양체	-11.4945
▁편이	-11.4945
▁시정	-11.4948
▁제프	-11.4949
140	-11.495
▁되기도	-11.4952
대리	-11.4954
▁극복	-11.4954
▁비례	-11.4954
아노	-11.4957
▁기준이	-11.4957
▁제작되었다	-11.4961
성에서	-11.4963
_19	-11.4964
▁쇼와	-11.4968
화학	-11.4968
▁일행	-11.497
old	-11.4971
룬	-11.4971
▁사이가	-11.4973
가족	-11.4974
커스	-11.4975
▁거주지	-11.4981
업무	-11.4982
▁산타	-11.4983
2020	-11.4988
▁바꿀	-11.499
▁기아	-11.4992
요리	-11.4992
fa	-11.4994
▁선수를	-11.4994
성우	-11.4995
▁김기	-11.4996
▁제목이	-11.4998
▁FM	-11.4998
가지의	-11.5
법원	-11.5
▁시선	-11.5001
▁종사하	-11.5001
스트라	-11.5004
▁춘천	-11.5005
▁원산	-11.5008
▁벨라루스	-11.5012
▁주위에	-11.5013
▁이종	-11.5016
▁따르	-11.5018
▁가면	-11.5019
▁지주	-11.5021
전은	-11.5022
▁보험	-11.5027
토크	-11.5027
았다	-11.503
▁오렌지	-11.5031
▁양이	-11.5033
ᆼ거	-11.5034
머니	-11.5035
▁주에	-11.5037
▁무용	-11.5037
tal	-11.5037
▁가축	-11.5039
버린다	-11.5039
ass	-11.5039
병으로	-11.5041
▁읽	-11.5042
▁사망자	-11.5042
IC	-11.5045
don	-11.5047
붕	-11.5051
▁레온	-11.5052
▁세월	-11.5052
▁지부	-11.5057
▁결심	-11.5057
▁인조	-11.5061
ᆷ팩트	-11.5063
▁소요	-11.5064
파일	-11.5065
실험	-11.5065
▁장점	-11.5066
위안	-11.5067
목에	-11.5067
퐁	-11.5069
▁58	-11.5071
▁용도	-11.5073
▁지방도	-11.5074
▁전한다	-11.5074
▁비가	-11.5077
▁중재위원회	-11.5079
Ju	-11.5079
타우	-11.5079
▁21:3	-11.508
▁영남	-11.508
바람	-11.508
헝가리	-11.5081
▁플로리다	-11.5083
▁하드	-11.5083
▁정교	-11.5084
▁드럼	-11.5085
“	-11.5085
재판	-11.5087
지역의	-11.5088
식품	-11.5089
보살	-11.5089
빌딩	-11.5092
▁프라	-11.5095
및	-11.5095
티에	-11.5097
전문	-11.5098
▁월드컵에	-11.5099
프로그램	-11.5099
책은	-11.51
▁옆	-11.51
郞	-11.5101
兵	-11.5102
ا	-11.5102
靑	-11.5102
保	-11.5102
伯	-11.5102
▁몬테네그로	-11.5102
▁평균자책점	-11.5102
意	-11.5102
碑	-11.5102
▁라트비아	-11.5102
▁우루과이	-11.5102
用	-11.5102
。	-11.5102
歌	-11.5102
▁않으나	-11.5102
▁충전	-11.5103
▁테일러	-11.5103
▁독자연구	-11.5103
▁캠페인	-11.5105
▁연꽃	-11.5105
▁등판해	-11.5106
▁카를로스	-11.5106
▁섬을	-11.5107
▁협업	-11.5107
부리	-11.5108
▁어디까지	-11.5108
▁사망하자	-11.5108
▁취항	-11.5108
1998	-11.5111
▁모친	-11.5111
▁태그	-11.5111
▁유동	-11.5111
▁사라졌다	-11.5111
해군	-11.5111
건축	-11.5112
Po	-11.5112
▁밝혀지지	-11.5112
산으로	-11.5114
작은	-11.5114
▁밀접한	-11.5115
▁스틸	-11.5115
▁짓고	-11.5116
주식회사	-11.5117
보건	-11.5118
▁기점으로	-11.5118
적이	-11.5118
▁재상	-11.5118
▁같아서	-11.5119
화되어	-11.5119
▁되어서	-11.512
▁등번호	-11.5122
▁반복적으로	-11.5123
▁평정	-11.5124
Han	-11.5124
▁1890	-11.5125
▁시작하였고	-11.5126
아버지	-11.5127
▁유로파	-11.5128
▁차지한	-11.5128
▁의원이	-11.5128
▁무지	-11.513
▁부적절한	-11.5131
▁시절부터	-11.5131
지역에	-11.5132
광주	-11.5132
▁전라도	-11.5133
▁가져가	-11.5134
▁엑스	-11.5135
▁가져다	-11.5136
▁20:3	-11.5138
▁다룬다	-11.5138
▁펼쳐	-11.5139
▁직결	-11.514
▁실업	-11.5141
▁인격	-11.5142
▁선교	-11.5142
▁닿	-11.5142
▁선생님	-11.5143
하세요	-11.5144
▁법안	-11.5144
▁경험이	-11.5146
저명한	-11.5147
▁게재	-11.5147
▁아직까지	-11.5148
▁들어갈	-11.5148
▁용도로	-11.5149
▁보일	-11.515
▁조승우	-11.5151
브레	-11.5151
▁47	-11.5152
▁상태였다	-11.5153
▁외국어	-11.5154
질서	-11.5154
▁설명한다	-11.5154
▁거주하고	-11.5155
pl	-11.5157
▁참고하여	-11.5158
▁합친	-11.5158
▁동위	-11.516
▁셀	-11.516
▁질문에	-11.5161
▁대신에	-11.5162
▁스쿨	-11.5166
▁한중	-11.5167
▁백과사전에	-11.517
▁내고	-11.517
▁목록에	-11.517
ran	-11.517
▁실권	-11.5171
▁초안	-11.5172
▁사우디아라비아	-11.5173
▁김해	-11.5173
▁일부분	-11.5174
▁남아있는	-11.5174
▁국내에서	-11.5175
행사	-11.5177
▁작업이	-11.5177
권과	-11.5178
San	-11.5178
호선과	-11.5179
▁주장에	-11.5182
cha	-11.5184
▁야구장	-11.5185
▁시대에는	-11.5186
광년	-11.5186
▁통행	-11.5186
▁05:5	-11.5187
▁극장판	-11.5188
▁지미	-11.5189
▁논리학	-11.519
▁돌고	-11.5194
▁세균	-11.5195
▁비판했다	-11.5196
▁먹고	-11.5196
▁미사	-11.5199
입니까	-11.5201
230	-11.5205
139	-11.5207
▁달아나	-11.5213
▁알아내	-11.5213
어는	-11.5213
MO	-11.5214
버린	-11.5215
▁성공한	-11.5218
NC	-11.5218
▁건물로	-11.5219
idae	-11.522
▁리그에	-11.5221
▁설명했다	-11.5222
▁22:5	-11.5222
▁어울리	-11.5223
▁유아	-11.5227
▁방향에	-11.523
▁쓰이지	-11.523
▁49	-11.5231
꾼	-11.5231
▁결정되었다	-11.5232
▁학장	-11.5232
특별	-11.5234
색은	-11.5238
▁ISO	-11.5238
ai	-11.5239
태수	-11.524
▁경보	-11.5241
▁병사들	-11.5241
▁채워	-11.5246
▁키보드	-11.5246
▁동년	-11.5246
로드	-11.5247
▁선종	-11.5248
마에	-11.525
▁≪	-11.5251
▁근처에서	-11.5255
야만	-11.5256
꺼	-11.5261
▁석조	-11.5263
킨스	-11.5263
▁수축	-11.5264
▁안쪽	-11.5266
▁강수량	-11.5266
어스	-11.5271
▁결승	-11.5273
▁윌	-11.5275
’,	-11.5275
▁천장	-11.5278
▁긴장	-11.5279
▁시스템이	-11.5282
지선	-11.5284
▁몰라	-11.5285
▁My	-11.5287
▁무어	-11.5288
▁재미	-11.5288
▁진행하는	-11.5289
종합	-11.529
▁We	-11.5292
▁시모	-11.5293
▁211	-11.5294
선생	-11.5295
▁인명	-11.5303
▁당원	-11.5305
인산	-11.5309
해온	-11.531
▁대통령에	-11.5314
▁모리스	-11.5314
단지	-11.5315
▁내어	-11.5316
▁태양과	-11.5317
▁알아보	-11.532
▁석탄	-11.5321
왕이	-11.5325
라니	-11.5325
▁중복	-11.5327
▁나쁘	-11.5328
ek	-11.5328
▁스티브	-11.5328
인천	-11.5329
▁요구했다	-11.5334
▁물리학자	-11.5335
국을	-11.5336
SU	-11.5337
▁III	-11.5339
▁여겨	-11.5339
▁벌인	-11.5339
▁곤란	-11.5339
▁분데스리가	-11.534
누마	-11.5341
▁공간으로	-11.5343
▁리투아니아	-11.5344
▁문서들을	-11.5347
▁한국어로	-11.5348
보다도	-11.5348
▁유지하는	-11.5348
삼국사기	-11.535
▁무상	-11.5351
색으로	-11.5351
▁계정으로	-11.5351
▁내륙	-11.5353
조약	-11.5354
▁머물러	-11.5355
출판	-11.5355
원숭이	-11.5357
▁고원	-11.5358
▁비율이	-11.5358
村	-11.5358
浦	-11.5358
族	-11.5358
說	-11.5358
憲	-11.5358
物	-11.5358
結	-11.5358
▁몬트리올	-11.5358
▁트럼프	-11.5358
▁트위터	-11.5358
▁노태우	-11.5358
▁프톨레마이오스	-11.5358
達	-11.5358
▁다항식	-11.5358
▁좋습니다	-11.5359
▁애국	-11.5359
▁인터위키	-11.5359
▁핵무기	-11.5359
▁일제강점기	-11.5359
▁근접	-11.5359
▁마음작용	-11.5359
▁국민투표	-11.5359
▁개발을	-11.536
▁배정	-11.5361
▁보여주었다	-11.5361
▁둘러싸여	-11.5362
▁베드로	-11.5363
게르	-11.5363
▁최악	-11.5363
▁라이언	-11.5363
ey	-11.5363
▁연립	-11.5364
험	-11.5364
▁장거리	-11.5366
▁포수	-11.5367
석과	-11.5367
▁없는데	-11.5367
▁영양	-11.5367
▁부유한	-11.5369
▁노동조합	-11.5369
▁투항	-11.5369
▁관절	-11.537
▁붉은색	-11.537
당이	-11.5372
chi	-11.5372
▁복합체	-11.5372
▁다발	-11.5373
▁대기업	-11.5374
▁가지가	-11.5374
▁평민	-11.5374
▁낙선	-11.5375
드로	-11.5375
▁않음	-11.5376
▁생겨난	-11.5376
XX	-11.5378
185	-11.5378
Si	-11.5379
▁그렇지만	-11.5379
▁식당	-11.5381
▁모인	-11.5382
▁만들지	-11.5383
▁다양하다	-11.5383
Ri	-11.5384
▁성남시	-11.5385
▁나누	-11.5385
▁1800	-11.5388
문의	-11.5391
▁순수한	-11.5392
▁언제나	-11.5393
플라	-11.5393
▁하시는	-11.5393
▁거행	-11.5394
▁살려	-11.5395
▁진급	-11.5395
▁살리	-11.5397
▁고조선	-11.5397
▁학부	-11.5398
▁타원형	-11.54
▁53	-11.54
▁시간은	-11.54
▁서브	-11.5402
산이	-11.5403
셋	-11.5403
아마	-11.5403
▁사상자	-11.5404
▁한다면	-11.5405
장애	-11.5405
공격	-11.5405
1981	-11.5405
121	-11.5406
이면서	-11.5406
1987	-11.5406
▁계획은	-11.5407
랍	-11.5409
▁앙	-11.541
▁만족시키는	-11.5412
넘	-11.5413
롬	-11.5415
자동차	-11.5415
▁잡는	-11.5415
▁지키기	-11.5415
▁12:15	-11.5415
▁모자	-11.5416
태양	-11.5417
▁민족주의	-11.5417
1984	-11.5417
▁아카데미상	-11.5419
중종	-11.542
port	-11.542
강도	-11.542
▁우연	-11.542
ice	-11.5426
je	-11.5426
ᆨ션	-11.5427
▁없다면	-11.5427
▁꿈을	-11.5427
▁늘리	-11.5427
▁대성	-11.5427
▁삭제하는	-11.5428
▁03:0	-11.5429
▁외모	-11.5429
▁필라델피아	-11.5431
▁단장	-11.5431
▁옮긴	-11.5432
▁여행을	-11.5433
리로	-11.5433
▁고백	-11.5433
▁확률	-11.5435
▁것으로서	-11.5436
긍정적인	-11.5438
▁사이토	-11.5438
주일	-11.5439
▁울프	-11.5439
사고	-11.544
▁단위로	-11.5441
▁상법	-11.5441
▁유배	-11.5442
▁동료들	-11.5443
▁잃어	-11.5443
했으면	-11.5446
187	-11.5447
▁리비아	-11.5447
리나	-11.5448
트루	-11.5449
궤도	-11.545
ᆯ래	-11.5453
▁업적	-11.5453
153	-11.5454
비와	-11.5455
Do	-11.5456
2003	-11.5457
▁자기장	-11.5459
ny	-11.546
▁책봉	-11.5461
▁내정	-11.5461
▁남겨주	-11.5461
▁한일	-11.5462
▁출연한	-11.5463
▁규정이	-11.5464
했	-11.5465
궤	-11.5467
▁오피스	-11.5467
mer	-11.5472
▁제조업	-11.5473
▁배우자	-11.5474
▁금메달	-11.5474
▁위임	-11.5476
치료	-11.5477
사용	-11.5477
▁관찰사	-11.5478
▁시뮬레이션	-11.5479
▁받아야	-11.5479
▁영원	-11.548
▁소속이다	-11.5481
tr	-11.5484
▁인력	-11.5485
▁상상	-11.5486
Ko	-11.5486
▁고소	-11.5489
우지	-11.5492
▁역임한	-11.5494
▁시간에	-11.5494
▁출처와	-11.5501
ᆻ으므로	-11.5502
▁역사에서	-11.5502
▁민주화	-11.5503
▁부문에서	-11.551
▁시로	-11.551
▁°	-11.5511
▁외관	-11.5512
▁2,000	-11.5513
▁결정한다	-11.5513
용의	-11.5514
Blue	-11.5515
▁내놓	-11.5516
쿤	-11.5517
▁은퇴한	-11.5518
▁붙	-11.5518
수학	-11.5519
▁성사	-11.5521
▁주민들은	-11.5526
▁다이아몬드	-11.5527
▁미얀마	-11.5527
▁항공모함	-11.5527
▁보이기	-11.5527
PS	-11.5528
▁후지와라노	-11.5529
▁벼	-11.5529
천초등학교	-11.5529
▁북동부	-11.5533
PT	-11.5533
▁오리	-11.5533
남자	-11.5534
유지	-11.5536
▁역사적으로	-11.5537
▁경선	-11.5538
▁감행	-11.5539
▁아닌가	-11.5539
▁님께서	-11.5541
ᆻ으면	-11.5542
▁독일에서	-11.5543
현상	-11.5543
▁똑같	-11.5544
PL	-11.5547
164	-11.5547
ref	-11.5548
▁같	-11.555
▁목적이	-11.5551
▁전류	-11.5552
▁함락	-11.5553
▁침체	-11.5553
▁아이스	-11.5554
마트	-11.5555
▁선호	-11.5556
▁사례가	-11.5556
▁활동으로	-11.5558
▁밝힌	-11.5558
관리자	-11.5558
▁성모	-11.5561
▁뿔	-11.5561
▁토기	-11.5562
143	-11.5563
형인	-11.5568
158	-11.5569
▁밀리	-11.557
守	-11.5573
▁읽고	-11.5576
▁선보였	-11.5577
체가	-11.5577
▁쌓아	-11.5577
▁프로그램에	-11.5578
212	-11.5579
굿	-11.5581
▁상기	-11.5581
▁포르	-11.5582
▁카프	-11.5583
좀	-11.5584
▁남인	-11.5586
▁맞고	-11.5586
MB	-11.5586
▁특징으로	-11.5586
▁음반은	-11.5587
221	-11.5587
▁뱀	-11.5589
대손	-11.5589
ium	-11.559
▁보유한	-11.5592
왔으며	-11.5593
▁지사	-11.5596
▁원전	-11.5597
▁분당	-11.56
면서도	-11.56
▁느낀	-11.5603
▁국어	-11.5604
▁레닌	-11.5605
▁고집	-11.5609
▁채우	-11.561
▁진동	-11.5611
▁06:5	-11.5611
▁Man	-11.5612
이즈	-11.5613
조원	-11.5613
▁주사	-11.5614
나스	-11.5616
▁추구하	-11.5617
▁위기에	-11.5617
금지	-11.5618
받는	-11.5619
▁형성되어	-11.562
으로서는	-11.562
將	-11.5621
о	-11.5621
奉	-11.5622
曹	-11.5622
▁아키텍처	-11.5622
非	-11.5622
▁멜버른	-11.5622
▁바르샤바	-11.5622
▁보헤미아	-11.5622
節	-11.5622
任	-11.5622
多	-11.5622
宋	-11.5622
▁아열대	-11.5622
▁NASA	-11.5622
AKB	-11.5622
言	-11.5622
▁바이올린	-11.5622
▁아이템	-11.5622
▁웹툰	-11.5622
▁레슬링	-11.5622
▁격퇴	-11.5622
▁모로코	-11.5622
▁기병	-11.5623
▁가려	-11.5623
▁케빈	-11.5623
▁침투	-11.5623
▁평범하	-11.5624
▁마카오	-11.5624
▁머물렀다	-11.5624
▁있을까요	-11.5624
▁음향	-11.5626
▁이에야스	-11.5626
▁무실점	-11.5626
▁판례	-11.5626
▁지냈고	-11.5627
▁일괄	-11.5627
▁가르	-11.5627
▁주장하며	-11.563
▁적당한	-11.563
▁레논	-11.563
▁중립	-11.5631
▁바라며	-11.5631
▁글꼴	-11.5632
▁직책	-11.5632
▁터치	-11.5632
▁헌정	-11.5632
라노	-11.5633
▁해당된다	-11.5633
▁곱	-11.5633
Big	-11.5633
▁함부	-11.5634
▁사용되지	-11.5639
▁제국과	-11.564
▁모시고	-11.5643
▁신생	-11.5643
▁오사카부	-11.5644
▁둘러싸고	-11.5644
▁사명	-11.5644
▁기각	-11.5646
▁중의원	-11.5647
▁남극	-11.5647
▁학원	-11.5649
블리	-11.565
▁교외	-11.565
▁이루었다	-11.5651
▁병역	-11.5651
▁겨울에	-11.5652
▁단절	-11.5652
▁뛰어	-11.5652
▁사용될	-11.5652
bu	-11.5652
니와	-11.5653
▁치러진	-11.5655
▁지키고	-11.5655
▁번역한	-11.5655
Pi	-11.5655
▁호조	-11.5657
bert	-11.5657
▁데뷔하였고	-11.5658
▁단계에서	-11.5661
ds	-11.5662
▁여당	-11.5662
▁윌리엄스	-11.5662
영상	-11.5663
▁발생하여	-11.5664
▁일조	-11.5665
▁황실	-11.5665
▁남미	-11.5665
▁적합하	-11.5665
▁실패했다	-11.5667
▁입수	-11.5672
▁구조물	-11.5672
선에서	-11.5672
▁위키미디어	-11.5674
원장	-11.5674
노바	-11.5675
▁서쪽에	-11.5675
▁관장	-11.5676
▁등지에서	-11.5678
춤	-11.5679
했음	-11.568
▁메시	-11.5681
시간이	-11.5682
_13	-11.5683
SL	-11.5683
▁부르며	-11.5683
▁작성하는	-11.5684
ᆸ시	-11.5687
고자	-11.5689
▁이끌	-11.5691
▁언급했다	-11.5692
▁아미	-11.5692
글로벌	-11.5693
▁화제가	-11.5693
주소	-11.5694
▁외의	-11.5696
▁과실	-11.5698
▁피에르	-11.5699
▁IC	-11.5702
▁좋게	-11.5702
▁이루	-11.5704
▁그중	-11.5706
▁하마	-11.5706
ron	-11.5707
왜	-11.5707
▁돌리	-11.5707
▁180	-11.5708
▁날씨	-11.5708
▁드래프트에서	-11.571
Or	-11.5711
ᆨ한	-11.5711
▁말하였다	-11.5713
▁사회에서	-11.5713
▁한데	-11.5713
▁통용	-11.5713
법칙	-11.5714
▁패전	-11.5714
족과	-11.5714
▁안으로	-11.5715
▁일도	-11.5716
▁경사	-11.5718
▁대회에서는	-11.5718
1964	-11.5719
1993	-11.5719
프스키	-11.5721
▁아르메니아	-11.5722
▁뜨거운	-11.5723
▁파이널	-11.5724
▁조직이	-11.5724
▁싫어	-11.5725
메이지	-11.5725
보로	-11.5725
었지만	-11.5726
▁출전하였다	-11.5726
▁여러번	-11.5727
▁언제든	-11.5727
▁$	-11.5729
마력	-11.573
동초등학교	-11.5731
또한	-11.5732
▁복장	-11.5732
▁Korean	-11.5735
▁동생인	-11.5737
▁측이	-11.5738
▁후작	-11.5739
▁노동당	-11.5739
▁행적	-11.574
▁연관	-11.5741
부스	-11.5747
▁무효	-11.5749
아스	-11.5752
문자	-11.5753
hr	-11.5755
씨가	-11.5756
틸	-11.5756
1901	-11.5758
▁휴전	-11.5758
웨	-11.5759
ᆫ데	-11.5759
▁서신	-11.5764
%8	-11.5767
▁위키에	-11.5769
▁시민권	-11.5772
love	-11.5773
▁공익	-11.5775
▁적자	-11.5776
미가	-11.5778
▁쓰인	-11.5779
▁72	-11.5779
▁겹치	-11.5779
▁원장	-11.578
▁받침	-11.5782
모로	-11.5782
▁대피	-11.5784
▁수렴	-11.5785
▁대가로	-11.5786
플래	-11.5786
156	-11.5789
▁21:5	-11.5789
▁모습은	-11.5791
셜	-11.5791
▁기단	-11.5791
봐야	-11.5791
▁지정하여	-11.5793
600	-11.5794
▁전쟁으로	-11.5795
mar	-11.5796
219	-11.5796
▁사용하면	-11.5796
▁김현	-11.5796
gh	-11.5797
Ru	-11.5799
▁에스파냐	-11.5801
무대	-11.5801
높이	-11.5803
팽	-11.5806
▁국영	-11.5807
페이지	-11.581
250	-11.5813
▁길이가	-11.5815
▁밀러	-11.5816
▁이후로는	-11.5817
▁악의적	-11.5819
▁대위	-11.5821
위가	-11.5821
코드	-11.5825
▁이상으로	-11.5826
▁북서쪽	-11.5828
▁서원	-11.583
log	-11.5831
ᄊ	-11.5832
보는	-11.5833
▁버전이	-11.5836
게이트	-11.5841
▁의결	-11.5843
▁단층	-11.5844
히메	-11.5844
▁센트럴	-11.5845
HD	-11.5847
▁06:1	-11.5848
과학기술	-11.5849
▁수용소	-11.585
▁기생	-11.5851
ial	-11.5853
복음	-11.5853
▁LA	-11.5857
▁바뀐	-11.5857
SC	-11.5858
▁페루	-11.5859
▁지장	-11.5859
▁전역에	-11.5861
▁정찰	-11.5862
▁할머니	-11.5865
▁종속	-11.5866
▁기여에	-11.5866
▁후쿠	-11.5867
▁버지니아	-11.5867
왕국	-11.5868
▁전망	-11.5869
홈	-11.587
▁해설	-11.587
쿼	-11.587
교사	-11.5871
▁신비	-11.5871
▁연구가	-11.5871
▁주제가	-11.5871
▁의석	-11.5872
ᄈ	-11.5873
▁억압	-11.5873
Love	-11.5874
릭	-11.5876
▁기질	-11.5883
▁들어온	-11.5884
▁생산된	-11.5884
▁일반인	-11.5885
스파이	-11.5887
▁적다	-11.5887
해야만	-11.5888
▁서민	-11.5888
▁삼국	-11.5889
▁것들이	-11.589
▁아무것	-11.5891
津	-11.5892
丁	-11.5892
良	-11.5892
▁트윈스	-11.5892
佐	-11.5892
ː	-11.5892
ᅦ종특별자치시	-11.5892
▁넓게	-11.5892
▁레바논	-11.5892
▁스튜어트	-11.5892
▁팔레스타인	-11.5892
▁삿포로	-11.5892
沙	-11.5892
許	-11.5892
▁핵융합	-11.5892
▁알파벳	-11.5892
벼	-11.5892
▁최성기	-11.5892
▁섭취	-11.5892
▁최하위	-11.5892
▁커널	-11.5892
▁패널	-11.5893
▁넷째	-11.5893
▁코로나	-11.5893
▁타이베이	-11.5893
▁한성	-11.5893
▁메뉴	-11.5893
▁형벌	-11.5894
▁착각	-11.5894
▁쉬운	-11.5895
▁없거나	-11.5895
▁클라우드	-11.5895
육군사관학교	-11.5895
▁사토	-11.5895
▁배웠다	-11.5896
▁올리실	-11.5896
▁그러던	-11.5896
▁겹쳐	-11.5897
▁적의	-11.5897
▁광학	-11.5898
봉사	-11.5899
▁프랑	-11.5899
▁벤치	-11.5901
▁몸통	-11.5902
그래	-11.5903
▁주장하고	-11.5904
▁물품	-11.5904
▁연결되	-11.5905
▁행동은	-11.5905
▁무제	-11.5906
▁동등하	-11.5908
조제	-11.5908
치가	-11.5909
▁동음이의어	-11.591
▁바탕에	-11.591
▁서임	-11.5912
▁탑신	-11.5912
▁승차	-11.5913
▁바꾸고	-11.5914
▁전국적으로	-11.5914
▁만주국	-11.5915
ᆫ스키	-11.5917
▁사령부	-11.5918
▁남기고	-11.5919
키스	-11.592
▁일어나자	-11.5921
▁거두	-11.5922
국에	-11.5922
▁방패	-11.5923
▁불가능한	-11.5923
▁순회	-11.5923
▁포병	-11.5924
▁시작하면서	-11.5924
Me	-11.5925
녹	-11.5925
동의	-11.5925
330	-11.5925
▁마블	-11.5927
RO	-11.5928
▁재위	-11.5928
▁신기	-11.5929
▁돼지	-11.5929
하였기	-11.593
▁3·1	-11.5931
▁그려	-11.5931
▁계단	-11.5933
▁Al	-11.5934
▁발현	-11.5935
▁하다가	-11.5935
▁산란	-11.5936
▁폭동	-11.5939
▁우파	-11.5941
포리	-11.5942
▁부재	-11.5942
▁없었습니다	-11.5942
▁근원	-11.5944
▁국가에	-11.5944
▁실패하고	-11.5947
▁도약	-11.5947
▁암호	-11.5948
▁주오	-11.5949
원군	-11.5951
비오	-11.5951
▁사본	-11.5952
▁견인	-11.5952
▁쓰였다	-11.5952
▁공부를	-11.5953
▁신도	-11.5954
▁대출	-11.5954
▁국토	-11.5954
▁누나	-11.5956
▁지식인	-11.5956
▁명령어	-11.5959
sta	-11.5959
CE	-11.596
▁대학에	-11.5961
▁육지	-11.5963
▁독일과	-11.5963
▁의뢰	-11.5964
이면	-11.5964
년대에는	-11.5965
▁실패하였다	-11.5965
▁강남구	-11.5966
▁대신하여	-11.5966
tri	-11.5966
EM	-11.5967
정작	-11.5968
▁빙	-11.5969
판의	-11.5969
▁범인	-11.5971
류의	-11.5972
▁선배	-11.5972
부에서	-11.5973
▁건축가	-11.5974
예정자	-11.5975
▁쪽이	-11.5976
▁인가	-11.5976
보험	-11.5976
▁삭제되어	-11.5979
▁지구와	-11.598
res	-11.5981
보스	-11.5981
▁생산량	-11.5981
▁싸우는	-11.5982
다르	-11.5983
보물	-11.5984
언론	-11.5985
차가	-11.5985
▁결정된다	-11.5985
107	-11.5986
▁대책	-11.5988
▁말리	-11.5989
▁우측	-11.5995
▁대단ᄒ	-11.5996
하였음을	-11.5996
▁선수이며	-11.5996
▁쇼트	-11.5997
▁손해	-11.5998
▁공격에	-11.6002
▁메일	-11.6002
▁대통령으로	-11.6003
▁쥐	-11.6003
▁남원	-11.6005
▁실재	-11.6005
땅	-11.6008
▁두가지	-11.6009
지역으로	-11.6013
▁모순	-11.6013
▁어려워	-11.6015
▁130	-11.6016
▁축하	-11.6016
애니	-11.6017
▁비밀리	-11.6018
▁미상	-11.6018
nu	-11.6019
ara	-11.6019
뮤직	-11.602
▁가도	-11.602
▁보게	-11.6022
▁혹	-11.6024
▁지방산	-11.6026
경기장	-11.6027
▁지휘하	-11.6028
▁약자	-11.6028
137	-11.6031
사관	-11.6032
▁SM	-11.6033
▁말도	-11.6035
▁맡기	-11.6035
▁일명	-11.6035
1979	-11.6035
▁시와	-11.6036
▁소문이	-11.6037
오늘의	-11.6038
▁It	-11.6039
777	-11.6044
of	-11.6045
▁IS	-11.6045
▁조국	-11.6046
Ex	-11.6046
아일랜드	-11.6048
▁Bo	-11.6049
리온	-11.6051
▁22:3	-11.6052
국은	-11.6053
▁가격이	-11.6054
총회	-11.6055
▁말기에	-11.6056
▁모이	-11.6059
공정	-11.6059
건가요	-11.606
실로	-11.606
남동	-11.6061
▁흔	-11.6061
ᆯ로프	-11.6062
▁짓는	-11.6062
▁옛날	-11.6062
▁착공	-11.6062
스트로	-11.6062
▁발매하였다	-11.6067
▁강남	-11.6067
▁학명	-11.6068
▁퇴장	-11.6069
▁원천	-11.607
▁측에서	-11.6071
즈카	-11.6071
ME	-11.6071
▁Wikipedia	-11.6072
▁죽이고	-11.6072
츠키	-11.6072
글을	-11.6074
▁구제	-11.6074
Su	-11.6075
▁딸이	-11.6075
타점	-11.6076
주었다	-11.6076
으나	-11.6077
버려	-11.6077
▁빛이	-11.6084
▁경찰에	-11.6084
무기	-11.6085
▁유리한	-11.6086
AG	-11.6087
▁둘러싸	-11.6089
산면	-11.609
관의	-11.609
▁나뉘	-11.609
▁저작	-11.609
▁공감	-11.6092
Cl	-11.6092
파르	-11.6093
▁손으로	-11.6093
▁양상	-11.6093
구성	-11.6096
범죄	-11.6097
▁못하다	-11.61
밥	-11.61
함은	-11.6101
▁대한민국과	-11.6101
ᆯ스	-11.6104
▁140	-11.6105
▁SC	-11.6106
하셨는데	-11.6108
ᆾ	-11.6108
▁운영되	-11.6109
154	-11.6109
▁공룡	-11.611
▁문화방송	-11.611
포로	-11.611
won	-11.6112
е	-11.6113
▁중시	-11.6114
훼손을	-11.6116
▁07:2	-11.6117
▁외야수	-11.6119
▁먹을	-11.612
▁대행	-11.6125
토모	-11.6126
▁의원을	-11.6126
무스	-11.6127
▁대신해	-11.6128
▁포도당	-11.6129
보리	-11.6131
▁가쓰	-11.6131
슬라	-11.6133
▁들여	-11.6134
▁의원들	-11.6134
현감	-11.6135
대강	-11.6136
▁달라고	-11.6137
▁운하	-11.6137
▁마르크스주의	-11.6138
조와	-11.6138
▁전하	-11.6141
장비	-11.6141
▁친구들	-11.6143
▁성도	-11.6144
▁시게	-11.6146
▁골프	-11.6146
실은	-11.6147
산맥	-11.615
영은	-11.615
▁상자	-11.6151
랴	-11.6158
▁가을에	-11.6161
▁주권	-11.6161
히토	-11.6162
▁걸린	-11.6163
어리	-11.6163
▁견제	-11.6164
▁구마모토	-11.6165
▁고려하여	-11.6165
ms	-11.6165
Fe	-11.6165
도마뱀붙이	-11.6166
▁유영	-11.6167
▁배치되어	-11.6168
皇	-11.6169
動	-11.6169
思	-11.617
fe	-11.617
塔	-11.617
@	-11.617
▁시베리아	-11.617
賢	-11.617
▁와이번스	-11.617
▁포획	-11.617
線	-11.617
▁아이슬란드	-11.617
加	-11.617
▁사무총장	-11.617
▁알코올	-11.617
▁다운로드	-11.617
關	-11.617
▁담긴	-11.6171
MHz	-11.6171
▁스칼라	-11.6171
▁북아프리카	-11.6171
▁교섭	-11.6171
▁점과	-11.6171
▁삼국시대	-11.6171
▁본거지	-11.6171
▁최저	-11.6172
▁고무	-11.6172
▁애칭	-11.6172
▁드물	-11.6172
▁직원들	-11.6173
▁타협	-11.6174
▁편견	-11.6174
▁헌신	-11.6174
▁메트로	-11.6175
▁부작용	-11.6176
▁퇴역	-11.6176
▁잔류	-11.6177
▁느낄	-11.6178
▁패스	-11.6178
▁봉쇄	-11.6178
▁종로구	-11.6179
▁사건과	-11.6179
▁복음서	-11.6179
▁좌표	-11.618
판과	-11.618
▁합리적	-11.618
▁시즌부터	-11.6182
▁올스타전	-11.6183
▁표방하	-11.6184
▁아웃	-11.6184
▁발령	-11.6184
▁성취	-11.6184
가능한	-11.6185
▁베어스	-11.6185
▁어항	-11.6186
▁공모	-11.6187
▁유사하다	-11.6188
▁90%	-11.6188
IV	-11.6188
공항	-11.6189
북면	-11.619
▁저희	-11.619
car	-11.619
곱	-11.6191
▁학설	-11.6192
▁이끌어내	-11.6192
▁미하일	-11.6193
▁잡았다	-11.6194
▁몰수	-11.6194
▁고개	-11.6195
설이	-11.6196
▁이성계	-11.6196
que	-11.6197
▁겪고	-11.6198
▁너비	-11.6198
▁50%	-11.6198
EX	-11.6199
▁리스트	-11.6199
패드	-11.62
▁굵은	-11.6202
▁부설	-11.6203
▁통보	-11.6203
▁분리된	-11.6203
사람들	-11.6204
▁배수	-11.6205
▁승점	-11.6205
▁찰리	-11.6205
교도소	-11.6206
▁쪽에	-11.6207
▁넣은	-11.6208
▁수직	-11.621
ᆫ혹	-11.6212
▁찾아서	-11.6213
HO	-11.6214
▁철회	-11.6215
▁미군정	-11.6215
▁도왔다	-11.6215
▁과정은	-11.6215
▁컸다	-11.6217
191	-11.6217
▁개종	-11.6219
▁도망치	-11.6219
년생	-11.622
▁차이점	-11.622
▁일주일	-11.622
▁작품들	-11.6221
▁공로로	-11.6222
루아	-11.6225
▁인산	-11.6226
▁그레	-11.6227
▁내용입니다	-11.6229
▁마이크로	-11.6229
▁결제	-11.6232
▁나이트	-11.6232
쪽은	-11.6235
▁아나	-11.6235
학교에서	-11.6235
are	-11.6238
▁미루어	-11.6238
▁출연하여	-11.6238
▁달성했다	-11.624
▁끌려가	-11.6241
▁정도였다	-11.6244
▁정치학	-11.6245
▁틀은	-11.6246
시즌에	-11.6246
냈다	-11.6247
▁퀘벡	-11.6249
▁출신인	-11.625
▁용어가	-11.625
▁단독으로	-11.6251
토록	-11.6253
▁출신이며	-11.6254
머스	-11.6254
메리	-11.6256
▁공격하여	-11.6256
▁설치하고	-11.6258
▁정치인으로	-11.6259
봉산	-11.626
▁되지만	-11.626
▁차관	-11.6264
병에	-11.6266
심이	-11.6266
▁프레임	-11.6267
▁작아	-11.6267
▁합당	-11.627
▁복위	-11.6271
Don	-11.6271
▁이름에서	-11.6272
국방송공사	-11.6273
DM	-11.6274
▁우물	-11.6275
▁어원	-11.6275
▁자식	-11.6279
산은	-11.6279
▁등장하지	-11.6281
▁철학적	-11.6282
▁모양이	-11.6283
▁개인이	-11.6283
▁용이	-11.6286
▁나타내	-11.6286
역과	-11.6288
▁구성되었다	-11.6289
▁사다	-11.629
계급	-11.6291
▁봐도	-11.6291
▁아부	-11.6293
▁생긴다	-11.6294
▁정려	-11.6295
▁연상	-11.6297
▁전반에	-11.6298
▁개발되었다	-11.6299
▁나가는	-11.6299
태후	-11.6299
▁독일이	-11.63
▁헤드	-11.6303
▁힘으로	-11.6304
▁대승	-11.6305
▁부모님	-11.6306
▁거치	-11.6306
범위	-11.6308
▁당수	-11.6308
▁맞다	-11.6309
▁분명ᄒ	-11.631
▁일족	-11.6312
▁설명할	-11.6312
▁스톤	-11.6314
▁정서	-11.6314
중이다	-11.6316
▁그녀에게	-11.632
▁개발자	-11.6324
▁그들에게	-11.6326
▁03:5	-11.6328
▁존속	-11.6329
▁소문	-11.633
den	-11.6331
주가	-11.6332
▁상점	-11.6333
▁변경하였다	-11.6334
▁승리한	-11.6334
아트	-11.6335
▁길고	-11.6335
▁외교관	-11.6337
▁남해	-11.6337
▁빼앗	-11.6341
▁호의	-11.6342
▁만화가	-11.6344
▁만남	-11.6348
▁바꾼	-11.6349
▁19:0	-11.6349
▁차이는	-11.635
▁워터	-11.6351
•	-11.6351
ight	-11.6351
인물	-11.6353
▁증후군	-11.6353
피스	-11.6353
▁런던의	-11.6353
ML	-11.6354
『	-11.6355
받지	-11.6356
이탈리아	-11.6356
▁횡단	-11.6357
결과	-11.6358
▁중종	-11.6358
▁일본으로	-11.6359
▁다케	-11.636
킷	-11.636
▁알라	-11.636
된다고	-11.6361
▁섬에서	-11.6362
▁팔리	-11.6364
랩	-11.6365
거지	-11.6367
노선	-11.6368
▁풍속	-11.6368
니는	-11.6371
▁경계로	-11.6371
사기	-11.6372
▁아리	-11.6373
▁다니는	-11.6375
▁들어오	-11.6376
▁되도록	-11.6376
▁변하는	-11.6379
▁현재에	-11.6382
▁이관	-11.6388
▁진전	-11.6388
회로	-11.6389
나갈	-11.639
▁놀이	-11.639
▁과정이	-11.6391
form	-11.6392
서야	-11.6392
수술	-11.6395
▁것임	-11.6395
인당	-11.6396
ook	-11.6398
▁점에	-11.6398
▁콩고	-11.6398
▁천문학자들	-11.6399
미술관	-11.6401
오던	-11.6401
행을	-11.6401
▁마스터	-11.6403
▁정에	-11.6405
▁요청이	-11.6406
▁고르	-11.6406
▁이순신	-11.6406
▁스마트폰	-11.6406
▁페이지에	-11.6406
음반	-11.6406
▁알제리	-11.6407
▁필리프	-11.6407
▁필요성	-11.6408
단체인	-11.6408
자연	-11.6409
▁북서부	-11.6409
let	-11.6409
ose	-11.641
군사	-11.6411
▁원인은	-11.6412
▁낚시	-11.6413
Mr	-11.6415
▁렌즈	-11.6418
ren	-11.6418
lic	-11.6421
▁비극	-11.6423
▁별칭	-11.6426
▁세우	-11.6428
▁노인	-11.6428
▁달한다	-11.643
▁소원	-11.6431
▁도카이	-11.6434
판에	-11.6434
▁낮아	-11.6436
▁고수	-11.6437
배를	-11.6437
▁있어서는	-11.6437
시타	-11.6438
도쿄	-11.6443
AB	-11.6446
해진다	-11.6447
서도	-11.6449
앞	-11.6449
ou	-11.6451
▁IT	-11.6451
▁나가사키	-11.6452
자고	-11.6452
▁읽어보시	-11.6452
▁퍼지	-11.6454
아웃	-11.6454
玉	-11.6454
侍	-11.6455
발의	-11.6455
尙	-11.6455
界	-11.6455
弘	-11.6455
玄	-11.6455
反	-11.6455
진상규명	-11.6455
▁그레고리오	-11.6455
▁드러머	-11.6455
▁디트로이트	-11.6455
▁무거운	-11.6455
▁빌헬름	-11.6455
▁왜냐하면	-11.6455
▁저렴하	-11.6455
▁컨텐츠	-11.6455
七	-11.6455
唐	-11.6455
湖	-11.6455
▁프랑크푸르트	-11.6455
熙	-11.6455
省	-11.6455
▁자민당	-11.6455
▁윤치호	-11.6455
統	-11.6455
▁링컨	-11.6456
出	-11.6456
解	-11.6456
article	-11.6456
▁내보내	-11.6456
▁애초에	-11.6456
▁내외	-11.6456
▁NBA	-11.6456
▁07:1	-11.6457
▁예정이었으나	-11.6457
▁플래시	-11.6457
▁어릴	-11.6457
▁불려	-11.6457
▁작센	-11.6457
▁어찌	-11.6457
신학	-11.6458
ON	-11.6458
저수지	-11.6459
▁민감하	-11.6459
▁지붕돌	-11.6459
▁받아들였다	-11.6459
▁위탁	-11.6459
▁강경	-11.646
omys	-11.646
▁추출	-11.646
▁발칸	-11.6461
▁민속	-11.6462
▁증발	-11.6463
▁기르	-11.6463
▁요크	-11.6465
문으로	-11.6465
▁수록곡	-11.6465
터스	-11.6466
▁스프링	-11.6466
▁호스트	-11.6466
▁이원	-11.6468
▁천문대	-11.647
▁관우	-11.647
▁관행	-11.6471
▁머리를	-11.6471
▁한성부	-11.6472
▁주조	-11.6473
기만	-11.6473
혹은	-11.6474
▁폭행	-11.6474
▁해결하기	-11.6474
▁유용한	-11.6475
▁토착종	-11.6476
▁권장	-11.648
관은	-11.648
▁하트	-11.648
▁1866	-11.6483
▁기차	-11.6483
▁이야기는	-11.6484
▁존재가	-11.6484
먼트	-11.6485
▁영국령	-11.6486
▁때문이라고	-11.6487
157	-11.6487
스탄	-11.6489
▁암석	-11.6491
▁중반에	-11.6493
▁사진이	-11.6493
▁둥지	-11.6495
판에서	-11.6495
/2	-11.6495
빌리	-11.6496
▁아서	-11.6496
▁떨어졌다	-11.6497
▁유래하였다	-11.6498
▁다투	-11.6498
리라	-11.6499
▁아비	-11.65
▁후궁	-11.6502
▁대사관	-11.6502
노미야	-11.6502
▁근무했다	-11.6503
▁우편	-11.6504
NG	-11.6504
▁안산	-11.6504
▁소중하	-11.6505
▁조약이	-11.6512
▁«	-11.6512
▁소유한	-11.6513
▁정밀	-11.6515
국에서	-11.6515
산리	-11.6516
▁자칭	-11.6516
Mon	-11.6517
▁평원	-11.6517
▁정의한다	-11.6518
ᆸ게	-11.6519
cal	-11.6522
▁존재할	-11.6523
▁각색	-11.6523
▁튀	-11.6523
확실하게	-11.6523
▁무성	-11.6523
▁사망하고	-11.6524
년경에	-11.6524
▁백과	-11.6527
▁강간	-11.6528
할까요	-11.653
▁밖에서	-11.6531
▁고발	-11.6532
day	-11.6534
▁강이	-11.6534
▁소유권	-11.6535
옌	-11.6536
▁형성되었다	-11.6536
▁위키에서	-11.6536
▁생성하신	-11.6537
나이트	-11.6538
▁개최국	-11.6541
114	-11.6541
▁백신	-11.6541
her	-11.6542
▁루카	-11.6544
▁융	-11.6544
▁군정	-11.6545
정권	-11.6546
▁한국어판	-11.6547
역은	-11.6548
▁방문하여	-11.6548
▁신속	-11.6548
▁명종	-11.6553
▁삭	-11.6555
▁배가	-11.6561
갖	-11.6561
▁양측	-11.6562
나미	-11.6562
▁떠난	-11.6563
▁피하기	-11.6565
▁뒤에는	-11.6565
계가	-11.6567
▁천사	-11.6567
미쓰	-11.6569
▁더욱이	-11.6572
▁도착한	-11.6573
▁언니	-11.6575
▁건가요	-11.6576
▁예이다	-11.658
ture	-11.6583
▁학회	-11.6583
▁상원의원	-11.6585
▁폭로	-11.6587
▁스토	-11.6587
IR	-11.6588
▁라이브러리	-11.659
3:30	-11.6591
▁아이티	-11.6591
▁장흥	-11.6592
▁느껴지	-11.6592
▁갑작스러	-11.6592
미스	-11.6592
킴	-11.6593
▁이론에	-11.6593
▁예정이	-11.6593
▁사이클	-11.6594
아니	-11.6594
▁캐시	-11.6594
▁연방의	-11.6595
▁THE	-11.6596
당하고	-11.6596
▁만나는	-11.6597
포항	-11.6598
▁릴리	-11.6598
▁칼라	-11.6599
▁상식	-11.6602
▁안보	-11.6602
리버	-11.6602
모음	-11.6603
▁장점이	-11.6605
표기가	-11.6605
▁우승한	-11.6606
예프	-11.6607
▁내주	-11.6609
치카	-11.661
▁중형	-11.661
sch	-11.6611
▁느끼는	-11.6612
▁용인	-11.6615
149	-11.6619
▁봐	-11.6619
bin	-11.6619
▁고칠	-11.6622
▁국가로	-11.6622
▁57	-11.6622
튀	-11.6622
▁일했다	-11.6623
▁멀	-11.6625
광고	-11.6627
▁용어로	-11.6628
ea	-11.6628
ᆯ림	-11.663
▁줄무늬	-11.6631
암동	-11.6633
sis	-11.6635
▁매기	-11.6638
▁이어가	-11.6638
▁그리스인	-11.6639
Ki	-11.664
시켜야	-11.664
벨리	-11.6644
▁이병	-11.6645
톰	-11.6645
▁부착	-11.6646
▁나주	-11.6646
네가	-11.6647
RC	-11.6647
▁봉화	-11.6651
▁암호화	-11.6654
▁규정에	-11.6655
▁대외	-11.6655
▁보존되어	-11.6656
▁김정일	-11.6657
ger	-11.6659
▁인사들	-11.666
▁기업인	-11.666
속으로	-11.6662
▁대제	-11.6668
키아	-11.6669
▁Lee	-11.6669
스피	-11.6671
옆면	-11.6673
▁모듈	-11.6673
▁붙이는	-11.6673
▁가지며	-11.6674
sion	-11.6675
▁상징하	-11.6677
▁가수로	-11.6677
카스	-11.6679
▁평론가	-11.6679
위성	-11.668
▁부족으로	-11.668
▁서문	-11.668
사인	-11.6682
▁법무부	-11.6683
하늘	-11.6684
MD	-11.6686
▁파문	-11.6693
메달을	-11.6694
▁세로	-11.6695
▁한화	-11.6696
▁단어는	-11.6697
pp	-11.6698
▁수학적	-11.6698
_18	-11.6698
▁컬럼비아	-11.6699
▁중성자	-11.6701
BL	-11.6701
▁07:3	-11.6702
대통령	-11.6702
▁믿어	-11.6703
행하는	-11.6703
▁그저	-11.6704
▁선발로	-11.6704
산의	-11.6704
▁사랑에	-11.6705
폴리	-11.6706
▁단점	-11.6707
uri	-11.6707
아메리칸	-11.6709
Go	-11.671
지부	-11.671
▁기고	-11.6714
▁누리	-11.6716
▁첨	-11.6718
▁문서와	-11.672
▁Ch	-11.6723
ᆼ산	-11.6726
▁고고학	-11.6726
204	-11.6726
벡	-11.6727
변경	-11.673
▁세상에서	-11.6731
▁방침	-11.6731
론은	-11.6731
js	-11.6732
▁운동이	-11.6733
ze	-11.6734
▁차남	-11.6734
위원회에서	-11.6735
▁술탄	-11.6736
레인	-11.6737
▁경기도의	-11.6738
1997	-11.6738
▁별개	-11.6742
▁필요할	-11.6742
대왕	-11.6742
질환	-11.6743
wi	-11.6744
▁발급	-11.6744
▁이북	-11.6744
▁서북	-11.6745
▁내세워	-11.6747
▁얻는	-11.6748
뚜	-11.6748
華	-11.6749
▁허리	-11.6749
等	-11.6749
▁세계대백과	-11.6749
^	-11.6749
御	-11.6749
م	-11.6749
先	-11.6749
現	-11.6749
烈	-11.6749
▁레스토랑	-11.6749
▁알루미늄	-11.6749
▁유클리드	-11.6749
▁흩어져	-11.6749
사우루스	-11.6749
口	-11.6749
▁가깝게	-11.675
數	-11.675
▁할리우드	-11.675
▁박사학위	-11.675
▁합스부르크	-11.675
▁스크린	-11.675
▁Wii	-11.675
거든요	-11.675
▁칙령	-11.675
▁버클리	-11.675
▁블랙홀	-11.6751
▁둥근	-11.6751
▁지자체	-11.6751
▁중국공산당	-11.6751
▁뭔가	-11.6751
놀이	-11.6751
▁장갑	-11.6752
▁지난날	-11.6752
David	-11.6753
▁복잡하	-11.6753
▁테니스	-11.6754
▁will	-11.6755
▁어려서	-11.6756
▁신지	-11.6757
▁늦게	-11.6757
▁값이	-11.6757
▁신도비	-11.6758
▁한국전쟁	-11.6759
▁높았다	-11.676
▁못했지만	-11.6761
▁남서부	-11.6761
▁반지름	-11.6763
주택	-11.6763
▁희곡	-11.6763
번으로	-11.6764
▁전지	-11.6764
▁즉각	-11.6765
▁송나라	-11.6766
▁가난한	-11.6766
▁공표	-11.6767
MBC	-11.6767
▁불필요한	-11.6767
▁연봉	-11.6767
san	-11.6768
▁받았으나	-11.6768
▁접하며	-11.6769
▁요건	-11.6769
▁버마	-11.6769
내에	-11.6771
▁숨어	-11.6773
▁운행하는	-11.6773
▁특성상	-11.6773
▁1884	-11.6774
▁최상위	-11.6775
▁1882	-11.6775
▁혼자서	-11.6775
▁홀로	-11.6775
광명	-11.6777
▁조사에서	-11.6778
▁활동하다가	-11.678
▁이어진다	-11.678
▁토양	-11.6781
▁카터	-11.6781
▁화제	-11.6782
▁응시	-11.6782
▁붙여진	-11.6783
▁근데	-11.6784
회사인	-11.6784
▁그나마	-11.6784
▁내에서는	-11.6785
절을	-11.6785
▁부른	-11.6786
▁파악하고	-11.6788
▁사업에	-11.6788
ser	-11.6789
▁츠나	-11.679
▁악용	-11.679
▁정사	-11.6791
형제	-11.6791
▁거두어	-11.6791
▁보이스	-11.6791
▁양해	-11.6796
▁레이저	-11.6797
▁소유하고	-11.6797
▁원조	-11.6797
▁점도	-11.6799
▁곡물	-11.6801
▁특권	-11.6801
▁아벨	-11.6802
▁남산	-11.6803
▁세자	-11.6804
▁기초로	-11.6806
▁찾지	-11.6806
질을	-11.6806
▁사건에서	-11.6806
▁글에	-11.6808
온도	-11.6808
당은	-11.6808
툰	-11.6809
▁스위치	-11.6809
▁테이프	-11.681
▁생각하여	-11.681
▁상표	-11.6812
▁배후	-11.6812
▁사영	-11.6813
▁온천	-11.6816
감사	-11.6816
▁싼	-11.6817
▁2,3	-11.6819
래도	-11.682
▁노트	-11.682
▁지질	-11.6821
6,000	-11.6821
▁실시한	-11.6822
▁250	-11.6822
가락	-11.6822
▁저지대	-11.6824
▁Le	-11.6824
▁말입니다	-11.6824
영역	-11.6825
CN	-11.6827
▁비유	-11.6831
▁필요하다고	-11.6832
▁키스	-11.6833
▁강연	-11.6833
신라	-11.6835
▁1,2	-11.6836
교육청	-11.6836
▁혼란을	-11.6838
650	-11.6838
▁지나간	-11.6839
▁사이드	-11.6839
관과	-11.684
졸	-11.6841
▁병기	-11.6841
Cho	-11.6841
_16	-11.6843
▁수차례	-11.6844
훈장	-11.6844
▁매거진	-11.6844
▁해당되는	-11.6847
▁공격으로	-11.6848
▁전해	-11.6848
현이	-11.6849
190	-11.6849
▁알리는	-11.685
▁관세	-11.685
▁어디에	-11.6851
현은	-11.6852
▁요동	-11.6856
소에	-11.6856
화한	-11.6857
▁아이즈	-11.6858
▁위함	-11.6858
ᆼ은	-11.6859
ug	-11.6859
▁Go	-11.686
▁소닉	-11.6861
▁승무원	-11.6862
다운	-11.6863
명이나	-11.6863
▁극한	-11.6868
▁기간이	-11.6869
主義	-11.687
▁찍어	-11.6871
EP	-11.6871
하타	-11.6872
수록	-11.6872
▁데뷔한	-11.6874
▁그려진	-11.6877
▁예시	-11.6878
▁61	-11.6883
▁신학교	-11.6883
▁있었음	-11.6883
헬	-11.6885
페어	-11.6887
호선이	-11.6889
▁아미노산	-11.6889
타리	-11.6889
자라고	-11.689
▁명제	-11.6891
전국	-11.6893
▁경호	-11.6893
ier	-11.6898
Ne	-11.6898
▁덮여	-11.6898
▁설도	-11.6899
▁실시하는	-11.6899
sk	-11.69
율이	-11.69
▁가네	-11.69
▁10,000	-11.6902
▁기념비	-11.6904
가미	-11.6904
오니	-11.6904
나우	-11.6906
▁조건이	-11.6908
▁생각하지	-11.691
▁대학생	-11.6912
렛	-11.6912
일반	-11.6917
▁의존	-11.6922
산과	-11.6922
▁요소들	-11.6923
▁납부	-11.6924
gy	-11.6924
▁토르	-11.6926
관에서	-11.6926
▁85	-11.6928
▁조성된	-11.6931
▁첨가	-11.6931
▁마침	-11.6932
line	-11.6932
▁덮	-11.6932
bit	-11.6934
▁안된다	-11.6934
톱	-11.6937
▁이남	-11.6938
▁비중이	-11.6941
▁스파르타	-11.6941
▁과제	-11.6944
▁인간과	-11.6949
▁옹호	-11.695
▁앨범에	-11.6951
▁높이가	-11.6952
Dr	-11.6957
문과	-11.6957
▁자료로	-11.6958
당신	-11.6961
▁배구	-11.6961
ᆻ나요	-11.6962
▁유래된	-11.6965
▁효과적	-11.6967
원리	-11.6968
▁금지되어	-11.6971
조로	-11.6971
▁새겨지	-11.6973
▁효율	-11.6973
▁도루	-11.6974
▁2》	-11.6974
▁만들어내	-11.6976
▁계속해	-11.6976
일방적인	-11.6976
▁신뢰성	-11.6977
▁일파	-11.6978
ster	-11.6979
▁우수하	-11.6982
En	-11.6984
양식	-11.6984
▁여주	-11.6984
▁작업에	-11.6986
산에	-11.6986
규정	-11.6987
국과	-11.6987
표기	-11.6988
▁지류	-11.6989
▁An	-11.6989
▁이승	-11.6989
▁메타	-11.699
링크	-11.6992
▁주어졌	-11.6992
ᅭ	-11.6994
▁한양	-11.6995
행성	-11.6997
▁이윤	-11.6997
▁계시	-11.6997
원에서	-11.6997
▁준우승을	-11.6998
▁캠프	-11.6998
US	-11.6998
▁유출	-11.6998
▁마차	-11.7
152	-11.7
▁물질이	-11.7001
We	-11.7003
▁남게	-11.7003
▁실무	-11.7003
자치	-11.7004
▁정적	-11.7004
북동	-11.7005
▁줄어들었	-11.7005
▁웅	-11.7005
푸스	-11.7007
▁놓았다	-11.7008
▁춤을	-11.7008
공단	-11.7012
▁형제가	-11.7013
▁파트	-11.7013
루수	-11.7013
▁온도가	-11.7014
▁호환	-11.7014
디오	-11.7014
ᆻ음	-11.7016
ᅯ	-11.7018
▁면제	-11.7019
플루	-11.7023
곡동	-11.7025
▁대통령과	-11.7027
▁원유	-11.7028
드리겠습니다	-11.7029
▁정계	-11.703
▁지원하기	-11.7031
▁DS	-11.7031
▁오르는	-11.7033
▁총리가	-11.7035
▁임명되어	-11.7035
▁13:5	-11.7038
▁조선일보	-11.7038
노동조합	-11.7041
▁105	-11.7042
ys	-11.7042
쩌	-11.7043
▁가브리엘	-11.7044
Her	-11.7046
▁루시	-11.7049
▁쾌속	-11.705
▁고사	-11.705
▁피겨	-11.7051
▁뮤	-11.7052
mon	-11.7052
墓	-11.7052
▁불어	-11.7052
陳	-11.7052
ü	-11.7052
ン	-11.7052
野	-11.7052
鍾	-11.7052
부드러운	-11.7052
夏	-11.7052
氣	-11.7052
間	-11.7052
▁단행본	-11.7053
▁도요토미	-11.7053
▁드미트리	-11.7053
▁프로듀싱	-11.7053
團	-11.7053
場	-11.7053
竹	-11.7053
貞	-11.7053
л	-11.7053
受	-11.7053
利	-11.7053
▁넥센	-11.7053
▁천연기념물	-11.7053
▁라이센스	-11.7053
▁돕기	-11.7053
▁앞장서	-11.7053
▁쓰촨	-11.7053
▁인공위성	-11.7053
▁가마쿠라	-11.7053
い	-11.7053
日本	-11.7053
▁안토니오	-11.7054
▁처녀	-11.7055
▁오른손	-11.7055
▁AS	-11.7055
▁맑	-11.7055
▁완벽하게	-11.7056
▁꼭짓점	-11.7057
▁쓰시마	-11.7057
▁공습	-11.7057
청소년	-11.7057
▁산둥	-11.7057
▁All	-11.7058
▁새긴	-11.7058
▁싸	-11.7059
▁동래	-11.7061
▁공백	-11.7061
▁삼촌	-11.7062
▁자리잡	-11.7062
▁조리	-11.7062
▁대폭	-11.7062
안이	-11.7062
▁넘게	-11.7063
▁사육	-11.7065
span	-11.7065
▁발견되지	-11.7066
▁종신	-11.7066
컷	-11.7066
▁조립	-11.7066
▁CJ	-11.7068
▁특색	-11.7069
마켓	-11.707
헨	-11.707
방향으로	-11.707
▁생태계	-11.707
▁확인하고	-11.7072
▁구분된다	-11.7073
▁1885	-11.7074
▁88	-11.7074
1983	-11.7075
▁공전	-11.7075
▁백업	-11.7078
잡이	-11.7078
▁개관	-11.7078
▁미시간	-11.7079
▁문예	-11.7079
▁이븐	-11.708
▁문양	-11.708
Com	-11.708
마나	-11.7081
▁남서쪽으로	-11.7081
▁북경	-11.7081
선사	-11.7082
148	-11.7082
1970	-11.7083
▁불리게	-11.7083
▁결승골	-11.7084
▁회계	-11.7084
▁속하며	-11.7085
▁잦은	-11.7085
▁인적	-11.7086
▁보수당	-11.7086
▁남동쪽	-11.7087
▁신뢰할	-11.7088
▁이루어지지	-11.7091
▁장군이	-11.7091
청구	-11.7092
▁맹세	-11.7093
나리	-11.7094
론적	-11.7094
▁1870	-11.7095
Mu	-11.7095
신이	-11.7095
▁함정	-11.7095
베라	-11.7096
▁기적	-11.7098
hn	-11.7099
ley	-11.7099
▁인접해	-11.7099
TF	-11.7101
▁편이며	-11.7101
▁불량	-11.7102
▁남작	-11.7102
▁폭포	-11.7103
▁반성	-11.7104
받는다	-11.7104
해주셨으면	-11.7104
1980	-11.7104
▁교원	-11.7105
주기	-11.7105
▁결정하는	-11.7106
스마	-11.7108
위원으로	-11.7108
▁쿨	-11.7111
▁물어	-11.7111
▁적용된다	-11.7112
되어서	-11.7113
▁이름과	-11.7114
ᆻ군요	-11.7117
▁목재	-11.7119
▁연결된다	-11.712
▁고조	-11.7122
▁설립하여	-11.7123
user	-11.7124
1962	-11.7124
▁있네요	-11.7124
지역에서	-11.7125
▁실린	-11.7126
ye	-11.7127
였을	-11.7128
▁수행한다	-11.7128
쿨	-11.713
▁잠재적	-11.7131
▁방면으로	-11.7132
▁미키	-11.7133
▁이정	-11.7135
싶	-11.7135
▁도입한	-11.7136
cle	-11.7137
ᆯ런	-11.7137
리타	-11.7137
▁남양	-11.7137
▁틈	-11.714
▁Part	-11.7141
도리	-11.7141
▁이유에	-11.7142
▁맥주	-11.7143
분석	-11.7144
▁도착했다	-11.7144
▁유적지	-11.7149
▁적분	-11.7149
▁종교의	-11.7153
▁끼치	-11.7155
▁워드	-11.7156
세키	-11.7157
▁연예인	-11.7158
샹	-11.7158
▁영화제에서	-11.7159
▁그건	-11.716
실을	-11.7162
▁혼다	-11.7162
▁실리	-11.7162
▁극단	-11.7164
▁팀인	-11.7164
▁도덕	-11.7165
▁경신	-11.7169
KS	-11.717
▁무시하	-11.7171
▁러시아에서	-11.7172
청년	-11.7175
단위	-11.7175
▁소음	-11.7176
▁바꾸	-11.7177
▁충남	-11.7177
▁친왕	-11.7178
삼아	-11.7187
▁상장	-11.7187
▁입국	-11.7188
레드	-11.7189
▁중립적인	-11.7191
▁서해	-11.7191
▁14:3	-11.7191
쪽으로	-11.7192
층으로	-11.7195
▁꼴	-11.7195
▁갈라져	-11.7196
▁블라디미르	-11.7196
▁포켓몬	-11.7196
재판소	-11.7196
강의	-11.7198
가능	-11.7198
▁언론에서	-11.7199
▁기록하는	-11.7199
중에서	-11.72
▁당선자	-11.72
▁보이는데	-11.7202
▁가미	-11.7203
당하는	-11.7204
▁어제	-11.7205
▁생산되었다	-11.7205
▁공격하는	-11.7206
▁포스	-11.7207
Bi	-11.7208
▁낸다	-11.7208
jo	-11.7208
▁결함	-11.7209
▁피로	-11.7215
PR	-11.7218
▁은메달	-11.722
건의	-11.7222
▁유지하기	-11.7222
▁농사	-11.7222
210	-11.7222
노프	-11.7224
▁주어지	-11.7224
▁매력	-11.7224
아서	-11.7227
▁Korea	-11.7228
개소	-11.723
▁기린	-11.7233
jh	-11.7233
▁폐기물	-11.7235
大夫	-11.7235
▁자산	-11.7236
▁김병	-11.7237
주셨으면	-11.7237
GP	-11.7239
▁프로그램이	-11.7239
명종	-11.724
LE	-11.7243
네이	-11.7243
▁엘리	-11.7245
경이	-11.7245
▁한해	-11.7247
기념관	-11.7248
루타	-11.7249
하자면	-11.725
▁월간	-11.7251
라기	-11.7252
▁이것들	-11.7253
▁출처로	-11.7253
▁별들	-11.7254
▁자체에	-11.7254
호기	-11.7256
▁북한군	-11.7256
▁팀과	-11.7261
▁증상이	-11.7264
▁내용과	-11.7264
▁활동하며	-11.7267
전과	-11.7269
야노	-11.727
구스	-11.7272
▁자이	-11.7272
kt	-11.7272
▁무명	-11.7278
▁밖에도	-11.7281
▁빈도	-11.7282
▁성명	-11.7283
▁섬유	-11.7286
밋	-11.7288
▁치른	-11.729
▁콘크리트	-11.7291
▁순조	-11.7292
세조	-11.7293
▁수색	-11.7294
▁제국주의	-11.7294
Mac	-11.7295
▁수상한	-11.7296
ons	-11.7297
▁고생	-11.7303
▁비석	-11.7308
▁원어	-11.7313
▁이긴	-11.7314
▁로스	-11.7315
▁말과	-11.7316
▁없으면	-11.7316
샤르	-11.7317
보세요	-11.7317
Ab	-11.7319
▁갖	-11.732
장기	-11.732
미래	-11.7321
두리	-11.7323
▁광복군	-11.7324
경원	-11.7325
▁돌입	-11.7326
해달라고	-11.7327
1880	-11.7328
▁부름	-11.733
les	-11.7331
시민	-11.7333
▁감자	-11.7333
ator	-11.7335
▁비단	-11.7336
▁라이프	-11.7338
▁LP	-11.7341
▁매수	-11.7342
간호	-11.7343
해주시	-11.7343
▁리메이크	-11.7344
▁펄	-11.7346
▁그럴	-11.7347
▁오키	-11.7347
▁오빠	-11.735
▁밀란	-11.735
▁의견은	-11.7351
비르	-11.7354
▁IN	-11.7357
▁KT	-11.7358
터미널	-11.7358
측은	-11.7358
끔	-11.7359
ll	-11.7359
패했다	-11.7361
뵈	-11.7363
데요	-11.7363
ᆼ구	-11.7363
夫	-11.7363
▁통일신라	-11.7364
▁대수적	-11.7364
開	-11.7365
▁힌두교	-11.7365
▁응우옌	-11.7365
從	-11.7365
ス	-11.7365
}	-11.7365
俊	-11.7365
淑	-11.7365
탈삼진	-11.7365
▁GFDL	-11.7365
▁나이지리아	-11.7365
▁무함마드	-11.7365
▁여우주연상	-11.7365
▁평안북도	-11.7365
μ	-11.7365
▁이를테면	-11.7365
▁승부차기	-11.7365
▁프랭크	-11.7365
▁기다려	-11.7365
▁워낙	-11.7365
力	-11.7365
▁야쿠르트	-11.7365
▁장례	-11.7365
naver	-11.7365
▁남동생	-11.7365
▁톈진	-11.7366
▁Car	-11.7366
得	-11.7366
▁매니저	-11.7366
▁비추어	-11.7366
▁절벽	-11.7366
▁스즈키	-11.7367
▁스콧	-11.7367
▁카타르	-11.7368
ash	-11.7368
▁석탑	-11.7368
▁예능	-11.7368
▁천수	-11.7368
뱅크	-11.7369
▁자켓	-11.7369
▁결별	-11.7369
++	-11.7369
▁불참	-11.7369
▁미션	-11.737
▁알려지게	-11.737
▁흉노	-11.737
▁레이디	-11.737
▁확인해주세요	-11.737
▁세션	-11.7371
▁시청자	-11.7372
▁위치하는	-11.7372
평의회	-11.7372
▁조별리그	-11.7373
▁통근	-11.7373
▁월요일	-11.7374
sy	-11.7374
▁삼림	-11.7374
5,000	-11.7375
AF	-11.7376
▁여유	-11.7378
정재	-11.7379
▁숨기	-11.7379
▁두께	-11.7379
▁여겼다	-11.7379
숙종	-11.7379
▁몰라서	-11.738
▁칩	-11.7381
기리기	-11.7381
▁무술	-11.7382
▁지상파	-11.7382
▁만들었고	-11.7383
▁시를	-11.7385
▁먼지	-11.7385
zo	-11.7385
▁정상적인	-11.7386
▁왕권	-11.7387
▁환원	-11.7388
▁얕	-11.7388
▁갈수록	-11.7389
▁프레스	-11.739
▁브루	-11.739
Lu	-11.739
▁영향이	-11.7391
점에서	-11.7394
▁같으며	-11.7394
dl	-11.7394
▁쉽지	-11.7396
▁미카	-11.7398
Park	-11.7398
▁의미는	-11.7399
▁무신	-11.74
▁찾고	-11.7402
▁북서쪽으로	-11.7402
▁가죽	-11.7402
▁오프라인	-11.7404
▁총독부	-11.7405
▁확인한	-11.7406
리카	-11.7406
공동체	-11.7407
투쟁	-11.7407
▁가져와	-11.7408
Tra	-11.7408
gus	-11.7408
▁원소는	-11.7408
▁트랜스	-11.741
sw	-11.741
▁사거리	-11.7411
▁동쪽은	-11.7411
▁모건	-11.7415
▁문의	-11.7416
측에서는	-11.7417
포인트	-11.7417
▁대리인	-11.7418
상대	-11.7418
▁이어진	-11.7421
▁상용	-11.7421
OO	-11.7422
▁어렸을	-11.7424
▁시초	-11.7427
▁호랑이	-11.7428
▁정의된다	-11.7428
▁후기에	-11.7431
▁시대부터	-11.7432
네트워크	-11.7432
▁자유형	-11.7432
Am	-11.7433
▁누르면	-11.7433
아나	-11.7434
▁동상	-11.7434
소송	-11.7435
▁30%	-11.7436
청이	-11.7436
▁불과하다	-11.7437
106	-11.7437
▁배우로	-11.7439
더스	-11.7439
▁승강장이	-11.744
천하	-11.744
▁갈등이	-11.7441
1969	-11.7441
▁나타나지	-11.7441
분자	-11.7443
구단	-11.7443
▁내놓았	-11.7443
▁저널	-11.7444
마르크	-11.7444
▁타점	-11.7444
▁생각한다	-11.7444
▁회상	-11.7445
[...]
